{
  "version": "1.0",
  "truncation": null,
  "padding": null,
  "added_tokens": [
    {
      "id": 0,
      "content": "[UNK]",
      "single_word": false,
      "lstrip": false,
      "rstrip": false,
      "normalized": false,
      "special": true
    }
  ],
  "normalizer": null,
  "pre_tokenizer": {
    "type": "ByteLevel",
    "add_prefix_space": true,
    "trim_offsets": true,
    "use_regex": true
  },
  "post_processor": {
    "type": "ByteLevel",
    "add_prefix_space": true,
    "trim_offsets": true,
    "use_regex": true
  },
  "decoder": null,
  "model": {
    "type": "BPE",
    "dropout": null,
    "unk_token": "[UNK]",
    "continuing_subword_prefix": null,
    "end_of_word_suffix": null,
    "fuse_unk": false,
    "byte_fallback": false,
    "ignore_merges": false,
    "vocab": {
      "[UNK]": 0,
      "!": 1,
      "\"": 2,
      "#": 3,
      "$": 4,
      "%": 5,
      "&": 6,
      "'": 7,
      "(": 8,
      ")": 9,
      "*": 10,
      "+": 11,
      ",": 12,
      "-": 13,
      ".": 14,
      "/": 15,
      "0": 16,
      "1": 17,
      "2": 18,
      "3": 19,
      "4": 20,
      "5": 21,
      "6": 22,
      "7": 23,
      "8": 24,
      "9": 25,
      ":": 26,
      ";": 27,
      "<": 28,
      "=": 29,
      ">": 30,
      "?": 31,
      "@": 32,
      "A": 33,
      "B": 34,
      "C": 35,
      "D": 36,
      "E": 37,
      "F": 38,
      "G": 39,
      "H": 40,
      "I": 41,
      "J": 42,
      "K": 43,
      "L": 44,
      "M": 45,
      "N": 46,
      "O": 47,
      "P": 48,
      "Q": 49,
      "R": 50,
      "S": 51,
      "T": 52,
      "U": 53,
      "V": 54,
      "W": 55,
      "X": 56,
      "Y": 57,
      "Z": 58,
      "[": 59,
      "\\": 60,
      "]": 61,
      "^": 62,
      "_": 63,
      "`": 64,
      "a": 65,
      "b": 66,
      "c": 67,
      "d": 68,
      "e": 69,
      "f": 70,
      "g": 71,
      "h": 72,
      "i": 73,
      "j": 74,
      "k": 75,
      "l": 76,
      "m": 77,
      "n": 78,
      "o": 79,
      "p": 80,
      "q": 81,
      "r": 82,
      "s": 83,
      "t": 84,
      "u": 85,
      "v": 86,
      "w": 87,
      "x": 88,
      "y": 89,
      "z": 90,
      "{": 91,
      "|": 92,
      "}": 93,
      "~": 94,
      "¡": 95,
      "¢": 96,
      "£": 97,
      "¤": 98,
      "¥": 99,
      "¦": 100,
      "§": 101,
      "¨": 102,
      "©": 103,
      "ª": 104,
      "«": 105,
      "¬": 106,
      "®": 107,
      "¯": 108,
      "°": 109,
      "±": 110,
      "²": 111,
      "³": 112,
      "´": 113,
      "µ": 114,
      "¶": 115,
      "·": 116,
      "¸": 117,
      "¹": 118,
      "º": 119,
      "»": 120,
      "¼": 121,
      "½": 122,
      "¾": 123,
      "¿": 124,
      "Â": 125,
      "Ã": 126,
      "Ä": 127,
      "Å": 128,
      "É": 129,
      "Ê": 130,
      "Ë": 131,
      "Ì": 132,
      "Í": 133,
      "Î": 134,
      "Ï": 135,
      "Ð": 136,
      "Ñ": 137,
      "Ö": 138,
      "×": 139,
      "Ø": 140,
      "Ù": 141,
      "Û": 142,
      "à": 143,
      "â": 144,
      "ã": 145,
      "ä": 146,
      "å": 147,
      "æ": 148,
      "ç": 149,
      "è": 150,
      "ï": 151,
      "ĉ": 152,
      "Ĕ": 153,
      "ě": 154,
      "Ġ": 155,
      "Ģ": 156,
      "ģ": 157,
      "Ĥ": 158,
      "ĥ": 159,
      "Ħ": 160,
      "ħ": 161,
      "Ĩ": 162,
      "ĩ": 163,
      "Ī": 164,
      "ī": 165,
      "Ĭ": 166,
      "ĭ": 167,
      "Į": 168,
      "į": 169,
      "İ": 170,
      "ı": 171,
      "Ĳ": 172,
      "ĳ": 173,
      "Ĵ": 174,
      "ĵ": 175,
      "Ķ": 176,
      "ķ": 177,
      "ĸ": 178,
      "Ĺ": 179,
      "ĺ": 180,
      "Ļ": 181,
      "ļ": 182,
      "Ľ": 183,
      "ľ": 184,
      "Ŀ": 185,
      "ŀ": 186,
      "Ł": 187,
      "ł": 188,
      "Ń": 189,
      "à¤": 190,
      "Ġà¤": 191,
      "à¥": 192,
      "à¤¾": 193,
      "à¤°": 194,
      "à¥ĩ": 195,
      "à¥į": 196,
      "à¤¿": 197,
      "Ġà¤ķ": 198,
      "à¤Ĥ": 199,
      "à¤¨": 200,
      "à¥Ģ": 201,
      "à¤¤": 202,
      "à¥ĭ": 203,
      "à¤ķ": 204,
      "à¤¯": 205,
      "à¤¸": 206,
      "Ġà¤¹": 207,
      "Ġà¤¸": 208,
      "à¤®": 209,
      "à¤¹": 210,
      "à¤²": 211,
      "à¥ģ": 212,
      "Ġà¤ª": 213,
      "Ġà¤®": 214,
      "à¥Ī": 215,
      "à¤µ": 216,
      "à¤¦": 217,
      "à¤ª": 218,
      "à¤Ĺ": 219,
      "Ġà¤ľ": 220,
      "à¥ĩà¤Ĥ": 221,
      "Ġà¤ħ": 222,
      "Ġà¤µ": 223,
      "Ġà¤¨": 224,
      "Ġà¤¬": 225,
      "à¤¼": 226,
      "Ġà¤¤": 227,
      "Ġà¤ī": 228,
      "à¥Ĥ": 229,
      "Ġà¤¦": 230,
      "à¥ĭà¤Ĥ": 231,
      "Ġà¤²": 232,
      "à¤ľ": 233,
      "à¥¤": 234,
      "Ġà¤Ķ": 235,
      "à¤¶": 236,
      "Ġà¤Ķà¤°": 237,
      "à¤¬": 238,
      "à¤Ł": 239,
      "Ġà¤°": 240,
      "à¤ı": 241,
      "Ġà¤ķà¤°": 242,
      "à¤§": 243,
      "à¤·": 244,
      "à¤ļ": 245,
      "Ġà¤Ĩ": 246,
      "Ġà¤¯": 247,
      "à¤¡": 248,
      "à¤¥": 249,
      "Ġà¤Ń": 250,
      "à¤£": 251,
      "Ġà¤ĩ": 252,
      "Ġà¤Ĺ": 253,
      "à¤ĸ": 254,
      "Ġ(": 255,
      "Ġà¤ªà¤°": 256,
      "à¥Īà¤Ĥ": 257,
      "à¤Ń": 258,
      "Ġà¤ı": 259,
      "Ġà¤ļ": 260,
      "Ġà¤īà¤¨": 261,
      "Ġà¤¶": 262,
      "à¤Ī": 263,
      "Ġà¤īà¤¸": 264,
      "Ġà¤ĩà¤¸": 265,
      "Ġà¤ĸ": 266,
      "à¥Īà¥¤": 267,
      "à¥Ģà¤Ĥ": 268,
      "à¤°à¤¤": 269,
      "à¤ªà¤¨": 270,
      "Ġà¤ıà¤ķ": 271,
      "Ġà¤¥": 272,
      "à¤«": 273,
      "Ġà¤«": 274,
      "Ġà¤¸à¤®": 275,
      "Ġà¤¨à¤¹": 276,
      "à¤ģ": 277,
      "à¤¾à¤Ĥ": 278,
      "Ġà¤¹à¤®": 279,
      "Ġà¤ķà¤°à¤¨": 280,
      "à¤Ľ": 281,
      "Ġà¤¯à¤¹": 282,
      "à¥Į": 283,
      "à¥ĥ": 284,
      "Ġà¤ħà¤ªà¤¨": 285,
      "Ġà¤°à¤¹": 286,
      "Ġà¤ħà¤¨": 287,
      "à¤ķà¤°": 288,
      "Ġà¤µà¤¹": 289,
      "à¤¼à¤¾": 290,
      "à¤°à¤ķ": 291,
      "à¤¾à¥¤": 292,
      "Ġà¤īà¤¨à¤ķ": 293,
      "à¤ķà¤¤": 294,
      "à¤ĩ": 295,
      "à¤ł": 296,
      "à¤°à¤£": 297,
      "Ġà¤ħà¤§": 298,
      "Ġà¤ķà¤°à¤¤": 299,
      "Ġà¤ķà¤¹": 300,
      "Ġà¤īà¤¸à¤ķ": 301,
      "à¤ĵ": 302,
      "Ġà¤¡": 303,
      "à¤¤à¤°": 304,
      "Ãł": 305,
      "à¤¾,": 306,
      "à¤µà¤°": 307,
      "à¥Ī,": 308,
      "Ġà¤Ĺà¤¯": 309,
      "Ġà¤¬à¤¨": 310,
      "Ġà¤Ĳ": 311,
      "Ġà¤īà¤ª": 312,
      "à¤¯à¤ķ": 313,
      "Ġ1": 314,
      "Ġà¤§": 315,
      "à¤ĥ": 316,
      "Ġà¤¤à¤¥": 317,
      "Ġà¤¸à¤ķà¤¤": 318,
      "Â¤": 319,
      "à¤¿à¤Ĥ": 320,
      "Ġà¤ªà¤¹": 321,
      "à¤Ĩ": 322,
      "à¤¾à¤ģ": 323,
      "à¤ľà¤¨": 324,
      "Ġà¤ħà¤²": 325,
      "à¤Ŀ": 326,
      "à¥ī": 327,
      "Ġà¤Ĩà¤ª": 328,
      "à¤°à¤®": 329,
      "à¥Īà¤Ĥà¥¤": 330,
      "Ġà¤Ĳà¤¸": 331,
      "Ġà¤Ľ": 332,
      "à¤ªà¤°": 333,
      "à¤¼à¥ģ": 334,
      "à¤¢": 335,
      "Ġà¤ľà¤¬": 336,
      "à¥ĩà¥¤": 337,
      "Ġà¤ĺ": 338,
      "à¤¯à¤¤": 339,
      "à¤¼à¥Ģ": 340,
      "à¤Ĺà¤°": 341,
      "âĢ": 342,
      "Ġà¤¤à¤°": 343,
      "à¥Ī.": 344,
      "à¤¹à¤°": 345,
      "à¤¸à¤°": 346,
      "à¤¤à¤¨": 347,
      "Ġà¤¤à¤ķ": 348,
      "Ġà¤Ł": 349,
      "Ġà¤µà¤°": 350,
      "Ġà¤ĩà¤¨": 351,
      "Ġà¤²à¤Ĺ": 352,
      "à¤²à¤¨": 353,
      "Ġà¤°à¤ĸ": 354,
      "Ġà¤¸à¤¹": 355,
      "à¤¯à¤®": 356,
      "Ġà¤®à¤¹": 357,
      "à¤¼à¤¿": 358,
      "à¤¨à¤¤": 359,
      "à¤²à¤¤": 360,
      "Ġà¤¬à¤¹": 361,
      "à¤°à¤¦": 362,
      "Â¤Â": 363,
      "à¤°à¤¸": 364,
      "Ġà¤īà¤¤": 365,
      "Ġ2": 366,
      "à¤¼à¥ĩ": 367,
      "à¤ªà¤¤": 368,
      "à¤ŀ": 369,
      "à¥Ģà¥¤": 370,
      "à¥ĩ,": 371,
      "à¤µà¤¨": 372,
      "Ġà¤ħà¤µ": 373,
      "à¤¶à¤¨": 374,
      "Ġ\"": 375,
      "à¤ļà¤¨": 376,
      "Ġà¤Ī": 377,
      "Ġà¤¸à¤¬": 378,
      "à¤ħ": 379,
      "à¤®à¤¤": 380,
      "à¥Ģ,": 381,
      "Ġà¤ĩà¤¸à¤ķ": 382,
      "à¤¸à¤®": 383,
      "à¤Ĺà¤¤": 384,
      "Ġà¤Ĩà¤¯": 385,
      "Ġà¤ķà¤®": 386,
      "Ġà¤ªà¤¹à¤²": 387,
      "à¤¬à¤°": 388,
      "à¤®à¤¨": 389,
      "à¤°à¤¯": 390,
      "à¤·à¤£": 391,
      "à¤¸à¤ķ": 392,
      "à¤ĺ": 393,
      "Ġà¤¬à¤¡": 394,
      "Ġà¤ħà¤¤": 395,
      "à¤¯à¤¨": 396,
      "Ġà¤ĵ": 397,
      "Ġà¤ħà¤Ń": 398,
      "à¤Łà¤°": 399,
      "Ġà¤īà¤¦": 400,
      "Ġà¤¸à¤ķ": 401,
      "à¤¨à¤ķ": 402,
      "à¥ĩ)": 403,
      "à¤ī": 404,
      "à¤¹à¤¤": 405,
      "Ġà¤¸à¤Ń": 406,
      "Ġà¤¸à¤®à¤¯": 407,
      "à¤²à¤¯": 408,
      "à¤¦à¤¨": 409,
      "à¤°à¤µ": 410,
      "Ġà¤¯à¤¦": 411,
      "à¤¦à¤°": 412,
      "à¤¸à¤¨": 413,
      "Ġà¤¸à¤°": 414,
      "Ġà¤ªà¤¤": 415,
      "00": 416,
      "à¤¾.": 417,
      "Ġà¤¤à¤°à¤¹": 418,
      "à¥ĭ,": 419,
      "Ġà¤¹à¤®à¤¨": 420,
      "Ġà¤ħà¤°": 421,
      "à¤ķà¤°à¤£": 422,
      "Ġà¤Ĩà¤µ": 423,
      "à¤ıà¤Ĺ": 424,
      "ĠâĢ": 425,
      "à¤®à¤ķ": 426,
      "Ġà¤¸à¤°à¤ķ": 427,
      "à¤¯à¤µ": 428,
      "à¤ķà¤²": 429,
      "Ġà¤¹à¤°": 430,
      "à¤µà¤¤": 431,
      "Ġà¤ĵà¤°": 432,
      "à¥Ĥà¤Ĥ": 433,
      "Ġà¤Ĺà¤ı": 434,
      "Ġà¤ħà¤ļ": 435,
      "Ġà¤Ĩà¤¦": 436,
      "Ġà¤Ŀ": 437,
      "Ġà¤ħà¤¸": 438,
      "à¤¾)": 439,
      "Ġà¤Ĺà¤Ī": 440,
      "Ġà¤°à¤¸": 441,
      "à¤Łà¤¨": 442,
      "à¤°à¤Ń": 443,
      "à¥Ĥà¤ģ": 444,
      "à¤§à¤¨": 445,
      "Ġà¤ħà¤ª": 446,
      "à¥ģà¤Ĥ": 447,
      "Ġs": 448,
      "Ġà¤Ĩà¤°": 449,
      "Ġà¤¬à¤¢": 450,
      "à¥Ģ)": 451,
      "Ġ19": 452,
      "Ġà¤Īà¤®": 453,
      "à¥Īà¤Ĥ,": 454,
      "Ġà¤¬à¤¦": 455,
      "Ġà¤Ĩà¤§": 456,
      "Ġà¥": 457,
      "Ġà¤Ĩà¤ªà¤ķ": 458,
      "à¤°à¤¹": 459,
      "Ġà¤ªà¤¡": 460,
      "à¤ĩà¤²": 461,
      "Ġà¤ıà¤µ": 462,
      "à¤¶à¤ķ": 463,
      "à¤µà¤²": 464,
      "Ġà¤¦à¤°": 465,
      "..": 466,
      "Ġà¤ļà¤²": 467,
      "Ġà¤Ĭ": 468,
      "Ġà¤¸à¤®à¤Ŀ": 469,
      "à¥ĭà¥¤": 470,
      "Ġà¤ħà¤Ĺà¤°": 471,
      "Ġà¤ħà¤¬": 472,
      "Ġ'": 473,
      "à¤°à¤ªà¤¤": 474,
      "Ġà¤ł": 475,
      "à¤¯à¤°": 476,
      "Ġà¤īà¤ªà¤¯": 477,
      "Ġà¤¬à¤ļ": 478,
      "Ġà¤ľà¤¹": 479,
      "à¤°à¤¶": 480,
      "à¥ĩà¤Ĥ,": 481,
      "Ġ(_": 482,
      "Ġà¤®à¤¨": 483,
      "Ġà¤Ĩà¤¤": 484,
      "Ġà¤¸à¤¤": 485,
      "Ġà¤īà¤¸à¤¨": 486,
      "Ġà¤Ĩà¤Ĺ": 487,
      "à¤¨à¤¨": 488,
      "à¤¼à¥į": 489,
      "à¤¸à¤²": 490,
      "à¥Ģ.": 491,
      "Ġà¤¸à¤¦": 492,
      "on": 493,
      "Ġà¤Ĩà¤ķ": 494,
      "à¤¤à¤ķ": 495,
      "Ġà¤¬à¤²": 496,
      "Â¥": 497,
      "Â¥Â": 498,
      "à¤²à¤¬": 499,
      "Ġà¤ħà¤ķ": 500,
      "à¤®à¤²": 501,
      "Ġà¤Ĩà¤ľ": 502,
      "ĠÃł": 503,
      "à¤¾-": 504,
      "Ġà¤ľà¤¨": 505,
      "à¤Ĳ": 506,
      "à¤°à¤¨": 507,
      "Ġà¤¬à¤¦à¤²": 508,
      "à¥ģà¤ģ": 509,
      "Ġ3": 510,
      "Ġà¤¶à¤ķ": 511,
      "à¤Ĺà¤²": 512,
      "me": 513,
      "à¤°à¤¬": 514,
      "à¥Īà¤Ĥ.": 515,
      "Ġà¤¬à¤¸": 516,
      "01": 517,
      "à¤¤à¤µ": 518,
      "Ġà¤¢": 519,
      "à¤®à¤°": 520,
      "à¤¼à¥ĭ": 521,
      "Ġà¤ķà¤²": 522,
      "ti": 523,
      "à¤¥à¤µ": 524,
      "à¤¤à¤®": 525,
      "Ġà¤īà¤ļ": 526,
      "Ġà¤īà¤ł": 527,
      "Ġà¤°à¤¬": 528,
      "à¥Ģ-": 529,
      "à¤ķà¤¨": 530,
      "à¤ĸà¤¨": 531,
      "Ġà¤ĳ": 532,
      "Ġà¤ªà¤¶": 533,
      "à¤Łà¤ķ": 534,
      "Ġà¤µà¤¸": 535,
      "Ġà¤ľà¤²": 536,
      "à¥¦": 537,
      "à¤¡à¤°": 538,
      "Ġà¤Ĩà¤µà¤¶": 539,
      "Ġà¤®à¤¹à¤¤": 540,
      "Ġn": 541,
      "à¤ĩà¤¨": 542,
      "à¤ªà¤ķ": 543,
      "Ġà¤¤à¤¬": 544,
      "à¤¿,": 545,
      "in": 546,
      "Ġà¤ħà¤®": 547,
      "à¥ĩà¤Ĥà¥¤": 548,
      "Ġà¤¶à¤°": 549,
      "Ġà¤ħà¤ľ": 550,
      "à¥ĩ-": 551,
      "Ġà¤ĩà¤¸à¤®": 552,
      "à¥ĩ.": 553,
      "Ġà¤ªà¤¦": 554,
      "Ġà¤°à¤¹à¤¤": 555,
      "à¤Ķ": 556,
      "à¥ĭà¤Ĥ,": 557,
      "Ġà¤ľà¤°": 558,
      "Ġà¤Ĩà¤¨": 559,
      "Ġà¤¬à¤°": 560,
      "à¤¨à¤µ": 561,
      "Ġà¤ľà¤®": 562,
      "Ġà¤ķà¤¹à¤¤": 563,
      "à¤ķà¤¡": 564,
      "à¤¯à¤¦": 565,
      "Ġà¤ĩà¤¨à¤ķ": 566,
      "Ġà¤Ĺà¤°": 567,
      "Ġà¤Ńà¤°": 568,
      "Ġà¤ªà¤°à¤µà¤°": 569,
      "an": 570,
      "Ġà¤¸à¤¬à¤¸": 571,
      "Ġà¤¸à¤ļ": 572,
      "Ġà¤¤à¤°à¤«": 573,
      "à¤¹à¤¨": 574,
      "Ġà¤ħà¤¥à¤µ": 575,
      "Ġà¤ĺà¤°": 576,
      "à¤¯à¤µà¤¸": 577,
      "à¤®à¤¸": 578,
      "à¤²à¤ķ": 579,
      "Ġà¤ªà¤°à¤µà¤°à¤¦": 580,
      "à¤¬à¤¨": 581,
      "Ġà¤®à¤¦": 582,
      "Ġà¤īà¤¸à¤¸": 583,
      "Ġà¤īà¤¨à¤¸": 584,
      "à¤·à¤ķ": 585,
      "à¤·à¤¯": 586,
      "Ġà¤īà¤ªà¤²à¤¬": 587,
      "tion": 588,
      "à¤µà¤¸": 589,
      "à¤ľà¤°": 590,
      "Ġà¤Ĩà¤¸": 591,
      "à¤µà¤ª": 592,
      "Ġà¤°à¤ĸà¤¤": 593,
      "Ġà¤®à¤ľ": 594,
      "à¤¨à¤°": 595,
      "à¤ļà¤¯": 596,
      "Ġà¤ĩà¤¸à¤²": 597,
      "Ġà¤¬à¤¤": 598,
      "à¤¨à¤²": 599,
      "à¥Ī?": 600,
      "er": 601,
      "à¤µà¤¯": 602,
      "à¤«à¤²": 603,
      "Ġà¤°à¤ķ": 604,
      "Ġà¤īà¤¨à¤®": 605,
      "à¤ķà¤Ł": 606,
      "à¤µà¤°à¤£": 607,
      "Ġà¤°à¤ĸà¤¨": 608,
      "à¤Ńà¤µ": 609,
      "à¤¨à¤®": 610,
      "à¤¹à¤®": 611,
      "ame": 612,
      "Ġà¤ķà¤Ń": 613,
      "à¤ĩà¤Ł": 614,
      "à¥ĭ)": 615,
      "à¤ªà¤·": 616,
      "à¤·à¤®": 617,
      "à¤ĸà¤¤": 618,
      "à¥ĩà¤Ĥ)": 619,
      "à¤¬à¤²": 620,
      "Ġà¤¸à¤¦à¤¸": 621,
      "Ġà¤ķà¤°à¤ķ": 622,
      "Ġà¤²à¤¡": 623,
      "Ġt": 624,
      "à¤Ĭ": 625,
      "Ġà¤ĩà¤¸à¤¸": 626,
      "à¤ıà¤¸": 627,
      "Ġà¤īà¤²": 628,
      "à¤¯à¤ª": 629,
      "à¤Ĺà¤®": 630,
      "Ġ4": 631,
      "pr": 632,
      "à¤¼à¥Į": 633,
      "Ġà¤°à¤¹à¤¨": 634,
      "Ġ5": 635,
      "Ġà¤īà¤¸à¤®": 636,
      "Ġà¤¨à¤¯": 637,
      "à¤ķà¤¸": 638,
      "à¤¨à¤¸": 639,
      "Ġà¤ªà¤¢": 640,
      "Ġà¤Ĩà¤¶": 641,
      "à¤Ķà¤°": 642,
      "Ġà¤¸à¤¨": 643,
      "es": 644,
      "Ġà¤®à¤§": 645,
      "Ġà¤¶à¤¬": 646,
      "Ġà¤µà¤ķ": 647,
      "§à¥": 648,
      "Ġà¤ķà¤Ī": 649,
      "à¤£à¤¨": 650,
      "à¤ªà¤¯": 651,
      "Ġà¤¡à¤°": 652,
      "à¤µà¤ķ": 653,
      "à¤łà¤¨": 654,
      "Ġà¤ĭ": 655,
      "Ġà¤ħà¤²à¤Ĺ": 656,
      "Ġà¤ķà¤¹à¤¨": 657,
      "à¤¦à¤®": 658,
      "Ġà¤§à¤°": 659,
      "Ġ200": 660,
      "Ġà¤¸à¤®à¤°": 661,
      "Ġà¤Ĩà¤Ī": 662,
      "Ġà¤ĸà¤°": 663,
      "à¤ļà¤°": 664,
      "à¤¶à¤¤": 665,
      "à¤¼à¥ĭà¤Ĥ": 666,
      "Ġà¤²à¤ķ": 667,
      "à¤²à¤Ĺ": 668,
      "Ġà¤Ĭà¤ªà¤°": 669,
      "Ġà¤ĩà¤¤": 670,
      "Ġà¤®à¤¤": 671,
      "à¤¥à¤®": 672,
      "Ġà¤¸à¤®à¤¸": 673,
      "Ġà¤®à¤°": 674,
      "Ġà¤ªà¤ķ": 675,
      "Ġà¤¤à¤¤": 676,
      "al": 677,
      "Ġà¤¦à¤¸": 678,
      "à¥ĩà¤Ĥ.": 679,
      "à¤°à¤¦à¤°": 680,
      "Ġà¤ħà¤µà¤¸à¤°": 681,
      "à¤¡à¤²": 682,
      "Ġà¤ħà¤µà¤§": 683,
      "à¤¥à¤¨": 684,
      "Ġa": 685,
      "à¥Ģà¤Ĥà¥¤": 686,
      "à¤°à¤ľ": 687,
      "à¤ªà¤¸": 688,
      "Ġà¤ħà¤Ĺ": 689,
      "Ġd": 690,
      "Ġà¤ħà¤¦": 691,
      "à¤¯à¤²": 692,
      "à¤Ľà¤²": 693,
      "Ġà¤¨à¤Ī": 694,
      "à¤µà¤µ": 695,
      "à¤¨à¤¦": 696,
      "Ġà¤Ĺà¤¤": 697,
      "Ġà¤¨à¤µ": 698,
      "à¤ĭ": 699,
      "à¤¬à¤¦": 700,
      "Ġ&": 701,
      "Ġà¤ľà¤Ĺ": 702,
      "Ġà¤Ńà¤²": 703,
      "à¤ĩà¤¸": 704,
      "âĢį": 705,
      "la": 706,
      "ĠâĢľ": 707,
      "Ġ#": 708,
      "it": 709,
      "à¥įâĢį": 710,
      "...": 711,
      "Ġà¤®à¤¦à¤¦": 712,
      "ĠâĢĺ": 713,
      "à¤Łà¤²": 714,
      "à¤·à¤¤": 715,
      "à¤Ĩà¤Ī": 716,
      "Ġà¤Ĩà¤®": 717,
      "or": 718,
      "Ġà¤¯à¤ķ": 719,
      "à¤¸à¤¦": 720,
      "Ġ201": 721,
      "Ġà¤ĩà¤¤à¤¨": 722,
      "à¤§à¤¤": 723,
      "Ġà¤®à¤Ĺà¤°": 724,
      "à¤¹à¤ķ": 725,
      "Ġà¤¸à¤ľ": 726,
      "à¤¯à¤ķà¤¤": 727,
      "Ġà¥§à¥": 728,
      "Ġà¤§à¤°à¤¤": 729,
      "Ġà¤¸à¤«": 730,
      "Ġà¤²à¤Ĺà¤¤": 731,
      "âĢĻ": 732,
      "Ġà¤ķà¤µ": 733,
      "Ġà¤Ĩà¤ı": 734,
      "Ġà¤ĩà¤²": 735,
      "à¤¯à¤¸": 736,
      "Ġà¤¹à¤Ł": 737,
      "à¥Ģà¤Ĥ,": 738,
      "Ġà¤ľà¤¬à¤ķ": 739,
      "à¥Ī;": 740,
      "à¤¸à¤¸": 741,
      "à¤¤à¤°à¤£": 742,
      "Ġà¤ĸà¤¡": 743,
      "Ġà¤Ĩà¤ĸ": 744,
      "ic": 745,
      "Ġà¤¹à¤ķ": 746,
      "Ġà¤ľà¤¨à¤¤": 747,
      "Ġà¤ĭà¤£": 748,
      "à¤ĸà¤°": 749,
      "Ġ6": 750,
      "à¤¼à¥Ī": 751,
      "à¤¬à¤¤": 752,
      "Ġà¤ķà¤ł": 753,
      "44": 754,
      "ee": 755,
      "Ġà¤Ńà¤µà¤¨": 756,
      "Ġk": 757,
      "à¤¸à¤¤": 758,
      "à¤¾/": 759,
      "à¤¤à¤¤": 760,
      "Ġà¤ıà¤¸": 761,
      "à¤¦à¤ķ": 762,
      "à¤·à¤®à¤¤": 763,
      "à¤¼à¥Ĥ": 764,
      "Ġà¤ľà¤Ĺà¤¹": 765,
      "à¤Ńà¤Ĺ": 766,
      "Ġà¤¸à¤²": 767,
      "à¤Ĩà¤°": 768,
      "Â¾": 769,
      "Ġà¤Ĩà¤¯à¤¤": 770,
      "Ġà¤ļà¤¯à¤¨": 771,
      "ĠC": 772,
      "ht": 773,
      "à¤¿)": 774,
      "à¤¦à¤Ĺ": 775,
      "Ġà¤«à¤°": 776,
      "Ġà¤īà¤®": 777,
      "à¤°à¤§": 778,
      "à¤µà¤§": 779,
      "Ġà¤¹à¤¸": 780,
      "ĠâĢĿ": 781,
      "Ġà¤¶à¤ĸ": 782,
      "à¤®à¤Ĺ": 783,
      "à¥Ī)": 784,
      "Ġà¤¦à¤ķ": 785,
      "201": 786,
      "Ġà¤¸à¤¹à¤¯": 787,
      "Ġà¤ħà¤ªà¤°": 788,
      "à¤¾à¤ĥ": 789,
      "à¤ªà¤Ł": 790,
      "à¤¬à¤¸": 791,
      "Ġà¤¬à¤ľ": 792,
      "à¤¦à¤¤": 793,
      "Ġà¤ļà¤°": 794,
      "op": 795,
      "à¤¼à¥ĩà¤Ĥ": 796,
      "à¤°à¤ļ": 797,
      "à¤łà¤²": 798,
      "Ġà¤²à¤Ĺà¤Ńà¤Ĺ": 799,
      "à¤Ĺà¤łà¤¨": 800,
      "Ġà¤¶à¤¹à¤°": 801,
      "à¤£à¤¯": 802,
      "Â¥Âį": 803,
      "Ġà¤®à¤¸": 804,
      "ab": 805,
      "Ġ7": 806,
      "Ġà¤ıà¤¨": 807,
      "Ġà¤ħà¤«": 808,
      "Ġà¤§à¤¨": 809,
      "Ġà¤Ĩà¤¦à¤®": 810,
      "à¤µà¤ľ": 811,
      "Ġ%": 812,
      "à¤¹à¤°à¤£": 813,
      "Ġà¤¨à¤®": 814,
      "en": 815,
      "Ġà¤īà¤ªà¤§": 816,
      "ĠS": 817,
      "à¤¾?": 818,
      "Ġ8": 819,
      "Ġà¤ªà¤°à¤¨": 820,
      "à¤¸à¤²à¤®": 821,
      "Ġ''": 822,
      "ot": 823,
      "Ġà¤ħà¤Ĺà¤²": 824,
      "Ġà¤ªà¤¸": 825,
      "à¤ħà¤ªà¤¨": 826,
      "Ġà¤ľà¤µ": 827,
      "Ġà¤ķà¤Ł": 828,
      "Ġ18": 829,
      "Â¤Âķ": 830,
      "Ġà¤ħà¤µà¤¸": 831,
      "Â¤Â°": 832,
      "Ġ_": 833,
      "Ġ0": 834,
      "Ġà¤¹à¤²": 835,
      "Ġ<": 836,
      "gm": 837,
      "à¤²à¤¸": 838,
      "Ġà¤ļà¤²à¤¤": 839,
      "à¤Ńà¤°": 840,
      "à¤°à¤Ĺ": 841,
      "à¤²à¤®": 842,
      "Ġà¤łà¤¹à¤°": 843,
      "à¤§à¤°": 844,
      "Ġkgm": 845,
      "à¥ĩ?": 846,
      "à¤ªà¤£": 847,
      "le": 848,
      "à¤¹à¤¤à¤°": 849,
      "à¤®à¤ļ": 850,
      "ii": 851,
      "Ġà¤¨à¤ķ": 852,
      "Ġà¤ķà¤¨": 853,
      "ar": 854,
      "Ġà¥¨": 855,
      "à¤Ĺà¤¨": 856,
      "à¤ĩà¤¯": 857,
      "Ġà¤Ľà¤µ": 858,
      "Ġà¤Ĩà¤¸à¤®": 859,
      "Ġà¤¶à¤¤": 860,
      "ran": 861,
      "à¤§à¤ķ": 862,
      "à¥Īà¥¤\"": 863,
      "at": 864,
      "Name": 865,
      "Ġà¤ĺà¤Łà¤¨": 866,
      "Ġà¤¨à¤ı": 867,
      "19": 868,
      "à¤°à¤²": 869,
      "Ġ:": 870,
      "Ġà¤ªà¤¹à¤ļ": 871,
      "à¤ľà¤²": 872,
      "à¤ıà¤ķ": 873,
      "Ġname": 874,
      "Ġà¤¦à¤¯": 875,
      "à¤ıà¤®": 876,
      "à¤µà¤¹": 877,
      "à¤ļà¤ķ": 878,
      "à¤®à¤¯": 879,
      "à¤¾;": 880,
      "Ġà¤¦à¤²": 881,
      "Ġà¤ĩà¤ķ": 882,
      "Ġà¤¹à¤µ": 883,
      "à¤·à¤°": 884,
      "à¤µà¤ļ": 885,
      "à¤°à¤¥à¤®": 886,
      "à¤łà¤ķ": 887,
      "Ġà¤®à¤ķ": 888,
      "ĠA": 889,
      "à¤²à¤°": 890,
      "Ġà¤¸à¤¬à¤ķ": 891,
      "à¤¸à¤µ": 892,
      "Ġ10": 893,
      "à¤¿-": 894,
      "Ġà¤¨à¤¦": 895,
      "à¥Įà¤Ĥ": 896,
      "à¤°à¤ļà¤¨": 897,
      "à¤¹à¤²": 898,
      "à¥¦à¥¦": 899,
      "à¤µà¤¶": 900,
      "Ġà¤Ĺà¤£": 901,
      "Â¥Âĩ": 902,
      "Ġà¤¸à¤µ": 903,
      "Ġà¤īà¤ªà¤¸": 904,
      "à¤®à¤¦": 905,
      "à¥ĭà¤Ĥ)": 906,
      "à¤°à¤ª": 907,
      "à¥į-": 908,
      "Ġc": 909,
      "à¤Łà¤®": 910,
      "Ġà¤Ńà¤µ": 911,
      "option": 912,
      "à¥Ģà¤ĥ": 913,
      "à¤ľà¤¹": 914,
      "à¤ıà¤²": 915,
      "à¤²à¤ķà¤°": 916,
      "à¤īà¤¸": 917,
      "à¥Īà¤Ĥ?": 918,
      "Ġà¤°à¤ļà¤¨": 919,
      "Ġà¤¦à¤¶": 920,
      "âĢĿ": 921,
      "Ġà¤ªà¤°à¤®": 922,
      "Ġà¤¨à¤¸": 923,
      "Ġ-": 924,
      "à¥Ī-": 925,
      "¯à¥": 926,
      "st": 927,
      "Ġà¤ĳà¤«": 928,
      "à¤¯à¤¯à¤¨": 929,
      "Ġ9": 930,
      "Ġà¤ªà¤Ł": 931,
      "Ġà¤Ĺà¤µ": 932,
      "à¥Ĥà¤Ĥà¥¤": 933,
      "Ġà¤ıà¤®": 934,
      "à¤Ĺà¤¡": 935,
      "ĠI": 936,
      "à¤¯à¤µà¤¹": 937,
      "rans": 938,
      "000": 939,
      "à¤°à¤®à¤£": 940,
      "Ġà¤ħà¤µà¤¶": 941,
      "Ġà¤Īà¤¸": 942,
      "Ġà¤¤à¤®": 943,
      "à¤²à¤µ": 944,
      "Ġà¤¸à¤®à¤Ŀà¤¤": 945,
      "à¤ļà¤²": 946,
      "à¤ĺà¤°": 947,
      "ransla": 948,
      "Ġà¤¨à¤ľ": 949,
      "à¤¯à¤¹": 950,
      "Ġà¤¤à¤¹à¤¤": 951,
      "à¤ľà¤ķ": 952,
      "optional": 953,
      "à¤°à¤Ĺà¤¤": 954,
      "Ġà¤īà¤ªà¤ķà¤°à¤£": 955,
      "Ġà¤¯à¤¥": 956,
      "à¥Īà¤ĥ": 957,
      "Ġà¤īà¤¡": 958,
      "à¤ħà¤²": 959,
      "Ġpr": 960,
      "Ġà¤īà¤ªà¤¬": 961,
      "Ġà¤¹à¤ľ": 962,
      "à¤¥à¤²": 963,
      "Ġà¤ķà¤¬": 964,
      "Ġ@": 965,
      "à¤¹à¤¸": 966,
      "Ġtransla": 967,
      "Ġà¤ªà¤ķà¤¡": 968,
      "Ġ15": 969,
      "Ġà¤īà¤¨à¤ªà¤°": 970,
      "à¤Ĭà¤£": 971,
      "à¤ķà¤µ": 972,
      "à¤Łà¤¤": 973,
      "à¤£à¤¤": 974,
      "Ġà¤Ĩà¤²": 975,
      "ly": 976,
      "à¤Ńà¤ķ": 977,
      "re": 978,
      "Ġà¤¸à¤«à¤²à¤¤": 979,
      "om": 980,
      "Ġà¤Ĺà¤¹à¤°": 981,
      "Ġà¤Ĩà¤ķà¤°": 982,
      "Ġà¤¤à¤ķà¤¨": 983,
      "Ġà¤Ĩà¤ªà¤¸": 984,
      "Ġà¤ħà¤¸à¤®": 985,
      "Ġà¤ıà¤²": 986,
      "Ġà¤ľà¤¹à¤¨": 987,
      "à¤·à¤¦": 988,
      "Ġà¤Ĭà¤°": 989,
      "Ġ199": 990,
      "à¤Ĺà¤¦": 991,
      "Ġà¤ķà¤ª": 992,
      "Ġà¤®à¤¶": 993,
      "à¤¦à¤¯": 994,
      "ity": 995,
      "Ġ12": 996,
      "Ġà¤¬à¤¯": 997,
      "à¤¯à¤¯": 998,
      "ob": 999,
      "à¥ĭ!": 1000,
      "à¥Īà¤Ĥ)": 1001,
      "à¤¬à¤¹": 1002,
      "à¤µà¤ľà¤¨": 1003,
      "à¤ĩà¤¡": 1004,
      "à¤Ĺà¤µ": 1005,
      "à¤¶à¤²": 1006,
      "à¤¤à¤²": 1007,
      "à¤°à¤¸à¤¨": 1008,
      "à¤®à¤®": 1009,
      "Â¤Â¸": 1010,
      "Ġà¤¤à¤²": 1011,
      "Ġà¤ĩà¤ļ": 1012,
      "à¤ĵà¤Ĺ": 1013,
      "Ġ11": 1014,
      "à¤ªà¤¦": 1015,
      "Ġ'%": 1016,
      "//": 1017,
      "Â¤Â¿": 1018,
      "à¤ļà¤¤": 1019,
      "ĠM": 1020,
      "he": 1021,
      "Ġà¤ªà¤²": 1022,
      "ĠP": 1023,
      "à¤¥à¤°": 1024,
      "Ġà¤¨à¤°": 1025,
      "Ġà¤Ķà¤°à¤¤": 1026,
      "à¤ľà¤¸": 1027,
      "à¤°à¤ķà¤Ł": 1028,
      "à¤¸à¤¬": 1029,
      "à¤¯à¤¶": 1030,
      "Ġà¤Ķà¤¦": 1031,
      "à¤ıà¤«": 1032,
      "-#": 1033,
      "Ġà¤īà¤ªà¤¨": 1034,
      "à¤°à¤¹à¤£": 1035,
      "à¤ľà¤¤": 1036,
      "Ġà¤Ĺà¤²à¤¤": 1037,
      "à¤¼à¥ī": 1038,
      "à¤°à¤°": 1039,
      "://": 1040,
      "Ġdo": 1041,
      "à¤ĸà¤²": 1042,
      "Ġtranslation": 1043,
      "à¤¥à¤ķ": 1044,
      "Â¤ÂĤ": 1045,
      "Ġà¤«à¤²": 1046,
      "Ġà¤¦à¤¬": 1047,
      "eed": 1048,
      "à¤¶à¤°": 1049,
      "âĢĵ": 1050,
      "Ġnot": 1051,
      "Ġà¤ĩà¤¨à¤®": 1052,
      "Ġà¤µà¤ľà¤¹": 1053,
      "tp": 1054,
      "à¤ĥ%": 1055,
      "Ġà¤ıà¤ķà¤¤": 1056,
      "Ġà¤¸à¤ĸ": 1057,
      "Ġà¤°à¤ķà¤®": 1058,
      "à¤ľà¤Ĺ": 1059,
      "Ġà¤ıà¤¶": 1060,
      "Ġà¤ĺà¤Ł": 1061,
      "Ġneed": 1062,
      "Â¤Â¨": 1063,
      "à¤Ĥ,": 1064,
      "à¤ĸà¤ķ": 1065,
      "à¤®à¤¹": 1066,
      "Ġà¤Ńà¤¯": 1067,
      "http": 1068,
      "ĠT": 1069,
      "Ġà¤®à¤ľà¤¬": 1070,
      "Ġà¤¬à¤ĸ": 1071,
      "à¥Ĥà¤ģà¥¤": 1072,
      "à¤Łà¤µà¤°": 1073,
      "à¥ĭ-": 1074,
      "à¥ħ": 1075,
      "Ġà¤¸à¤®à¤ķ": 1076,
      "Ġà¤Īà¤¶": 1077,
      "se": 1078,
      "Ġà¤ħà¤°à¤¬": 1079,
      "Ġà¤°à¤µ": 1080,
      "Ġdoes": 1081,
      "ably": 1082,
      "Ġà¤µà¤¨": 1083,
      "Ġprob": 1084,
      "Ġà¤ĩà¤¬": 1085,
      "Ġprobably": 1086,
      "nt": 1087,
      "à¤Łà¤µ": 1088,
      "Ġhttp": 1089,
      "à¤ıà¤¨": 1090,
      "à¤ķà¤®": 1091,
      "à¤£à¤ªà¤¤": 1092,
      "Ġà¤«à¤°à¤®": 1093,
      "ol": 1094,
      "à¤¬à¤Ī": 1095,
      "City": 1096,
      "ou": 1097,
      "à¤¤à¤ľ": 1098,
      "à¤īà¤¨": 1099,
      "à¤µà¤µà¤°": 1100,
      "Ġà¤¸à¤«à¤²": 1101,
      "Ġ20": 1102,
      "Ġà¤¨à¤Ĺà¤°": 1103,
      "Ġà¤Ĩà¤¦à¤°": 1104,
      "à¤®à¤ªà¤°": 1105,
      "Ġà¤ħà¤¶": 1106,
      "à¥ĥà¤Ĥ": 1107,
      "Ġà¤¸à¤ª": 1108,
      "Ġà¤ªà¤¥": 1109,
      "Ġà¤ıà¤ľ": 1110,
      "is": 1111,
      "of": 1112,
      "Ġp": 1113,
      "ĠD": 1114,
      "à¤¡à¤¨": 1115,
      "Ġ196": 1116,
      "à¤¹à¤¦": 1117,
      "à¤¨à¤ķà¤°": 1118,
      "--": 1119,
      "Â²": 1120,
      "Ġ{": 1121,
      "Ġà¤®à¤²": 1122,
      "):": 1123,
      "her": 1124,
      "Ġà¤²à¤ĺ": 1125,
      "à¥ĩà¥¤\"": 1126,
      "à¤¨à¤¤à¤®": 1127,
      "Ġà¤ķà¤¡": 1128,
      "Ġà¤īà¤ªà¤°": 1129,
      "Ġb": 1130,
      "à¤£à¤µà¤¤": 1131,
      "nic": 1132,
      "ĠF": 1133,
      "Ġà¤¬à¤°à¤¸": 1134,
      "il": 1135,
      "Ġ[": 1136,
      "Ġà¤ķà¤¥": 1137,
      "à¤īà¤Ł": 1138,
      "Ġà¤ĺà¤¡": 1139,
      "),": 1140,
      "à¤°à¤ĸ": 1141,
      "à¤¿.": 1142,
      "Âª": 1143,
      "à¤°à¤Ķ": 1144,
      "à¤ħà¤ª": 1145,
      "à¤Ĺà¤¦à¤°": 1146,
      "Ġà¤ķà¤ķ": 1147,
      "à¥ĭ?": 1148,
      "Ġà¤ļà¤²à¤¨": 1149,
      "ĠB": 1150,
      "à¤°à¤£à¤¬": 1151,
      "à¤¼)": 1152,
      "Ġà¤ĸà¤¤à¤°": 1153,
      "ĠG": 1154,
      "à¤°à¤Ķà¤¨": 1155,
      "à¤¸à¤ª": 1156,
      "Ġà¤ļà¤¢": 1157,
      "à¤ħà¤°": 1158,
      "et": 1159,
      "Ġà¤ĩà¤¬à¤°": 1160,
      "à¥ĭà¤Ĥà¥¤": 1161,
      "à¤²à¤Ń": 1162,
      "Ġà¤ļà¤ķ": 1163,
      "Ġ25": 1164,
      "à¤ķà¤ª": 1165,
      "Ġà¤īà¤ªà¤Ń": 1166,
      "-#-#": 1167,
      "Ġà¤ķà¤¦à¤®": 1168,
      "à¥Ģà¤Ĥ)": 1169,
      "Ġà¤¡à¤°à¤¤": 1170,
      "Ġà¤ļà¤¨": 1171,
      "à¥ĭ.": 1172,
      "à¤Ĩà¤¤": 1173,
      "à¤®à¤£": 1174,
      "htm": 1175,
      "Ġà¤¬à¤§": 1176,
      "Ġm": 1177,
      "Ġà¤ħà¤¸à¤«à¤²": 1178,
      "à¤¿à¤ĥ": 1179,
      "à¤¦à¤²": 1180,
      "Ġà¤ªà¤¨": 1181,
      "Ġà¤¤à¤¨": 1182,
      "à¤¤à¤°à¤°": 1183,
      "ww": 1184,
      "ĠR": 1185,
      "Ġà¤Ĩà¤ªà¤¨": 1186,
      "Ġà¤¸à¤¡": 1187,
      "à¤¯à¤¤à¤¨": 1188,
      "à¤¿à¥¤": 1189,
      "à¤ľà¤¯": 1190,
      "Ġ195": 1191,
      "à¤¦à¤°à¤¤": 1192,
      "Ġà¤¸à¤¦à¤¨": 1193,
      "à¤ªà¤²": 1194,
      "Ġà¤Ĩà¤¬": 1195,
      "Ġf": 1196,
      "ĠL": 1197,
      "Ġà¤Ĩà¤¹": 1198,
      "à¤ĩà¤ķ": 1199,
      "di": 1200,
      "à¤Ĺà¤£": 1201,
      "Ġ16": 1202,
      "à¤ķà¤²à¤¨": 1203,
      "à¤ľà¤µ": 1204,
      "Ġà¤°à¤¦": 1205,
      "12": 1206,
      "Ġà¥§à¥¯à¥": 1207,
      "Ġà¤ķà¤®à¤ľ": 1208,
      "ÂªÃł": 1209,
      "Ġà¤Ŀà¤Ĺà¤¡": 1210,
      "à¤ľà¤¨à¤ķ": 1211,
      "ment": 1212,
      "Ġà¤ħà¤®à¤°": 1213,
      "à¤Ļ": 1214,
      "ĠN": 1215,
      "à¤¹à¤°à¤¬": 1216,
      "ĠU": 1217,
      "à¥Ĥ-": 1218,
      "à¤°à¤µà¤°": 1219,
      "Ġ194": 1220,
      "Ġà¤«à¤¸à¤²": 1221,
      "à¤ħà¤¨": 1222,
      "Ġ198": 1223,
      "à¤īà¤¸à¤ķ": 1224,
      "ra": 1225,
      "à¤ħà¤ľ": 1226,
      "à¤¦à¤¶": 1227,
      "Ġà¤ªà¤°à¤¸": 1228,
      "à¤¤à¤ļ": 1229,
      "à¤¬à¤°à¤¦": 1230,
      "Ġà¤ĩà¤°": 1231,
      "Ġà¤īà¤°": 1232,
      "à¤ķà¤¤à¤®": 1233,
      "Ġà¤Ńà¤Ĺà¤µ": 1234,
      "Ġà¤ķà¤¶": 1235,
      "à¤ķà¤¤à¤°": 1236,
      "ĠH": 1237,
      "Ġ197": 1238,
      "à¥¨": 1239,
      "à¤¶à¤¬": 1240,
      "à¤Ľà¤¤": 1241,
      "à¤¨à¤µà¤°": 1242,
      "Ġà¤°à¤ľ": 1243,
      "Â¤Â®": 1244,
      "Ġà¤ķà¤¦": 1245,
      "Ġ14": 1246,
      "Ġà¤¬à¤¨à¤¨": 1247,
      "Ġ13": 1248,
      "ĠE": 1249,
      "Ġà¤ħà¤ĸ": 1250,
      "Ġà¤ľà¤¨à¤¸": 1251,
      "à¤µà¤Ł": 1252,
      "Ġà¤¬à¤Ĺ": 1253,
      "à¤¹à¤¬": 1254,
      "Ġà¤ĩà¤®": 1255,
      "Ġà¤īà¤¤à¤¨": 1256,
      "''": 1257,
      "Ġà¤¹à¤¤": 1258,
      "Ġà¤ĩà¤ľà¤°": 1259,
      "à¥«": 1260,
      "Ġà¤¨à¤¬": 1261,
      "à¤¶à¤µ": 1262,
      "Ġà¤ħà¤¹": 1263,
      "à¤¯à¤§": 1264,
      "Ġà¤¹à¤°à¤Ĺ": 1265,
      "à¤°à¤¥": 1266,
      "à¤īà¤¨à¤ķ": 1267,
      "Ġà¤¤à¤Ł": 1268,
      "à¥Ģ/": 1269,
      "Ġà¤īà¤Ĺ": 1270,
      "à¤Ĥà¥¤": 1271,
      "Ġw": 1272,
      "Â¥ÂĢ": 1273,
      "Ġà¤ıà¤ļ": 1274,
      "Ġà¤ļà¤°à¤£": 1275,
      "Ġà¤¤à¤¸": 1276,
      "Ġthe": 1277,
      "200": 1278,
      "Ġà¤¸à¤°à¤ķà¤¶": 1279,
      "à¤«à¤°": 1280,
      "à¤®à¤µ": 1281,
      "Ġà¤¸à¤°à¤²": 1282,
      "Ġà¤īà¤ªà¤ļ": 1283,
      "à¤Ĩà¤¨": 1284,
      "Ġe": 1285,
      "à¤µà¤¹à¤¨": 1286,
      "Ġ30": 1287,
      "à¤ľà¤®": 1288,
      "à¤ĺà¤¨": 1289,
      "à¤ħà¤¤": 1290,
      "11": 1291,
      "Ġà¤ıà¤«": 1292,
      "Ġà¤¸à¤®à¤¨": 1293,
      "Â¤Â¤": 1294,
      "Ġà¤²à¤®": 1295,
      "à¤Īà¤²": 1296,
      "Ġà¤¸à¤°à¤¦": 1297,
      "à¤¨à¤¯": 1298,
      "Ġ17": 1299,
      "à¥ĭà¤Ĥ/": 1300,
      "à¤°à¤«": 1301,
      "à¤¾à¥¤\"": 1302,
      "à¤¸à¤°à¤£": 1303,
      "à¤µà¤¯à¤¨": 1304,
      "Ġg": 1305,
      "Ġà¤Ĩà¤ļ": 1306,
      "Ġx": 1307,
      "à¤ĸà¤ķà¤°": 1308,
      "Ġà¤¦à¤¶à¤ķ": 1309,
      "Ġà¤¹à¤¦": 1310,
      "à¤¶à¤¯": 1311,
      "à¤¤à¤ª": 1312,
      "el": 1313,
      "Ġin": 1314,
      "Ġà¤®à¤¤à¤²à¤¬": 1315,
      "à¤¬à¤¡": 1316,
      "ĠO": 1317,
      "à¥ĭà¥¤\"": 1318,
      "Ġh": 1319,
      "Ġà¤®à¤¹à¤¸": 1320,
      "à¥ĩà¤Ĥ...": 1321,
      "à¤Łà¤ķà¤°": 1322,
      "à¤ľà¤¬": 1323,
      "Ġà¥§": 1324,
      "à¤ĸà¤¦": 1325,
      "Ġà¤¤à¤ķà¤²": 1326,
      "Ġà¤¸à¤¹à¤ķ": 1327,
      "Ġà¤ľà¤¡": 1328,
      "à¥Īà¤Ĥ-": 1329,
      "à¤Łà¤°à¤¨": 1330,
      "ce": 1331,
      "Ġà¤¬à¤¦à¤²à¤¨": 1332,
      "à¥ĩ;": 1333,
      "Ġà¤¹à¤¡": 1334,
      "à¤ªà¤ļ": 1335,
      "Ġ\"%": 1336,
      "pres": 1337,
      "Ġà¤īà¤¸à¤ªà¤°": 1338,
      "Ġà¤ĩà¤ľ": 1339,
      "Ġà¤ķà¤ªà¤¡": 1340,
      "Ġà¤ĺà¤¨": 1341,
      "ut": 1342,
      "à¤ªà¤®": 1343,
      "Ġà¤¸à¤¹à¤®à¤¤": 1344,
      "à¤Ĺà¤ľ": 1345,
      "à¥īà¤ģ": 1346,
      "à¤°à¤·": 1347,
      "Ġà¤Łà¤¨": 1348,
      "à¤·à¤ľ": 1349,
      "Ġà¤ªà¤°à¤¹": 1350,
      "Â¤ÂŁ": 1351,
      "à¤¾!": 1352,
      "Ġà¤¤à¤¯": 1353,
      "à¤ħà¤ļ": 1354,
      "Ġà¤īà¤¤à¤°": 1355,
      "à¤¯à¤¥": 1356,
      "à¤¾à¤Ĥ,": 1357,
      "Ġà¤¸à¤®à¤Ŀà¤¨": 1358,
      "10": 1359,
      "Ġà¤ķà¤¸": 1360,
      "id": 1361,
      "Ġà¤¨à¤¹à¤°": 1362,
      "à¤ĩà¤ª": 1363,
      "Â¤Â¯": 1364,
      "Ġà¤īà¤ªà¤ķ": 1365,
      "à¥ĩà¤Ĥà¤ĥ": 1366,
      "Ġà¤Ĺà¤²": 1367,
      "Ġà¤īà¤ľ": 1368,
      "Ġà¥©": 1369,
      "à¤¯à¤£": 1370,
      "Ġà¤Ĺà¤£à¤°": 1371,
      "Ġà¤¸à¤ľà¤¦": 1372,
      "ent": 1373,
      "à¥¬": 1374,
      "à¤¡à¤µ": 1375,
      "Ġ+": 1376,
      "ĠâĢĵ": 1377,
      "Ġà¤ķà¤°à¤µ": 1378,
      "Ġà¤Ńà¤ķ": 1379,
      "à¥Ģà¤Ĥ.": 1380,
      "à¥Ĥà¤ģ,": 1381,
      "à¥ģ.": 1382,
      "Ġ24": 1383,
      "Ġà¤Ĩà¤Ń": 1384,
      "à¤¡à¤®": 1385,
      "Ġà¤ĩà¤ķà¤Ł": 1386,
      "à¤ĩà¤®": 1387,
      "à¤Ŀà¤¸": 1388,
      "Ġ50": 1389,
      "omment": 1390,
      "à¤ªà¤ı": 1391,
      "à¤Ĺà¤ķà¤°": 1392,
      "à¤®à¤ľ": 1393,
      "Â¥Âĭ": 1394,
      "Ġà¤¨à¤·": 1395,
      "à¤ĸà¤Ń": 1396,
      "à¥®": 1397,
      "Ġà¤Ĩà¤īà¤Ł": 1398,
      "uk": 1399,
      "à¥Ī!": 1400,
      "ed": 1401,
      "à¥Ģ;": 1402,
      "Ġà¤Ĩà¤ıà¤Ĺ": 1403,
      "ec": 1404,
      "à¤Ĥ.": 1405,
      "Ġà¤ľà¤¨à¤µà¤°": 1406,
      "à¥Ģ?": 1407,
      "à¤µà¤Ń": 1408,
      "à¥ģ-": 1409,
      "à¤ħà¤²à¤Ĺ": 1410,
      "Ġà¤ħà¤¸à¤®à¤°": 1411,
      "à¥ª": 1412,
      "à¤ĺà¤Łà¤¨": 1413,
      "à¤¨à¤Ł": 1414,
      "à¤ĩà¤¶": 1415,
      "à¤°à¤ķà¤°": 1416,
      "à¤¼-": 1417,
      "Ġà¥¨à¥¦à¥¦": 1418,
      "Ġà¤īà¤ķ": 1419,
      "à¥Ń": 1420,
      "Ġà¤Ľà¤¤": 1421,
      "à¥°": 1422,
      "à¥§à¥": 1423,
      "Ġà¤īà¤§": 1424,
      "à¥©": 1425,
      "à¤¤à¤°à¤¦": 1426,
      "Ġ100": 1427,
      "Ġà¤Ĩà¤ł": 1428,
      "à¤¶à¤¨à¤²": 1429,
      "Ġà¤¦à¤µ": 1430,
      ":%": 1431,
      "Ġà¤ªà¤µ": 1432,
      "Ġu": 1433,
      "Ġà¤ķà¤®à¤°": 1434,
      "Ġà¤¤à¤Ń": 1435,
      "Ġ=": 1436,
      "Ġà¤Ĩà¤¨à¤¨": 1437,
      "à¤Ńà¤µà¤¤": 1438,
      "à¤ĩà¤ľ": 1439,
      "Ġ193": 1440,
      "à¤µà¤¦à¤°": 1441,
      "html": 1442,
      "à¤°à¤¯à¤¤": 1443,
      "Ġà¤µà¤ļà¤¨": 1444,
      "Ġà¤¨à¤ľà¤°": 1445,
      "Ġà¤ľà¤Ł": 1446,
      "ac": 1447,
      "Ġà¤ĩà¤¸à¤°": 1448,
      "ail": 1449,
      "à¥§": 1450,
      "Ġà¤°à¤¹à¤®": 1451,
      "Ġà¤¨à¤«": 1452,
      "à¤ķà¤¹": 1453,
      "Ġà¤Ķà¤²": 1454,
      "Ġà¤Ĩà¤«": 1455,
      "Ġà¤ªà¤¸à¤¨": 1456,
      "Ġà¤ķà¤²à¤ķà¤¤": 1457,
      "Ġà¤¹à¤¥": 1458,
      "Ġà¤¹à¤®à¤²": 1459,
      "à¤Ĩà¤ĸ": 1460,
      "Ġà¤Ĳà¤¤": 1461,
      "à¤·à¤§": 1462,
      "Ġà¤īà¤Ń": 1463,
      "ri": 1464,
      "à¤²à¤ļ": 1465,
      "à¤ªà¤¡": 1466,
      "à¤Łà¤¶à¤¬": 1467,
      "à¤¶à¤®": 1468,
      "Ġà¤ļà¤ĸ": 1469,
      "à¤ķà¤Ń": 1470,
      "à¤¦à¤¬": 1471,
      "à¤¯à¤Łà¤¨": 1472,
      "à¤¨à¤¹": 1473,
      "Ġà¤®à¤ľà¤¦": 1474,
      "Ġà¤ħà¤¸à¤²": 1475,
      "muk": 1476,
      "20": 1477,
      "Ġà¤Ĩà¤°à¤®": 1478,
      "Ġà¤Ĩà¤ĵ": 1479,
      "pran": 1480,
      "à¤µà¤¦": 1481,
      "à¤¬à¤ķ": 1482,
      "jee": 1483,
      "abmuk": 1484,
      "herjee": 1485,
      "pranabmuk": 1486,
      "pranabmukherjee": 1487,
      "ing": 1488,
      "à¤łà¤Ń": 1489,
      "prh": 1490,
      "à¤¸à¤ļ": 1491,
      "iv": 1492,
      "Ġà¤Ĺà¤łà¤¨": 1493,
      "âĢĺ": 1494,
      "Ġà¤ķà¤¤": 1495,
      "à¤¾à¤ģ,": 1496,
      "Ġ26": 1497,
      "à¤ķà¤¦à¤®": 1498,
      "à¥ī.": 1499,
      "Ġà¤Īà¤°": 1500,
      "à¤ħà¤®à¤¤": 1501,
      "Ġà¤¬à¤¨à¤¤": 1502,
      "à¤īà¤¨à¤²": 1503,
      "Ġ(%": 1504,
      "Ġà¤®à¤Ī": 1505,
      "à¤ļà¤¤à¤®": 1506,
      "Ġà¤¦à¤°à¤µ": 1507,
      "Â¹": 1508,
      "à¥Īà¤Ĥà¤ĥ": 1509,
      "Ġà¤ħà¤Ĺà¤¸": 1510,
      "Ġà¤ħà¤¨à¤ķ": 1511,
      "Ġà¤ĳà¤¨à¤²": 1512,
      "Ġà¤Ĺà¤£à¤¨": 1513,
      "à¥¤\"": 1514,
      "à¤ªà¤¶": 1515,
      "Ġà¤Ķà¤¸à¤¤": 1516,
      "Ġà¤ıà¤ķà¤®": 1517,
      "Ġà¤¬à¤ķ": 1518,
      "qu": 1519,
      "....": 1520,
      "Ġà¤Ķà¤·à¤§": 1521,
      "à¤°à¤Ĩà¤¨": 1522,
      "ĠName": 1523,
      "Ġà¤Ĺà¤ł": 1524,
      "Ġof": 1525,
      "à¤µà¤¸à¤¨": 1526,
      "Ġà¤¬à¤Łà¤¨": 1527,
      "Ġà¤¦à¤°à¤®": 1528,
      "Ġà¤®à¤Ľà¤²": 1529,
      "à¥ĩà¤Ĥ?": 1530,
      "à¤ľà¤ª": 1531,
      "14": 1532,
      "Ġà¤Ķà¤ľ": 1533,
      "à¤ĳ": 1534,
      "Ġà¤¹à¤®à¤¸": 1535,
      "Ġà¤ıà¤ķà¤²": 1536,
      "Ġà¤Ľà¤¹": 1537,
      "Ġà¤°à¤¹à¤®à¤¤": 1538,
      "à¤ĩà¤µ": 1539,
      "à¤¾à¤ĥ%": 1540,
      "à¤¨à¤ª": 1541,
      "à¤¸à¤®à¤¯": 1542,
      "à¥ģ,": 1543,
      "Ġ28": 1544,
      "50": 1545,
      "à¥Ī...": 1546,
      "ĠZ": 1547,
      "ME": 1548,
      "Ġà¤ĺà¤Łà¤ķ": 1549,
      "ase": 1550,
      "Ġl": 1551,
      "à¤¹à¤Ł": 1552,
      "à¤®à¤ª": 1553,
      "à¤¨à¤¬": 1554,
      "Ġà¤ħà¤µà¤°": 1555,
      "Âµ": 1556,
      "16": 1557,
      "Ġà¤ħà¤¡": 1558,
      "à¤¶à¤¦": 1559,
      "à¤¯à¤Ĺ": 1560,
      "Ġà¤ķà¤ļ": 1561,
      "à¤ķà¤ķ": 1562,
      "Ġà¤īà¤²à¤Ł": 1563,
      "Ġà¥¤": 1564,
      "Ġ23": 1565,
      "à¤·à¤ķà¤°": 1566,
      "à¤ĩà¤¬": 1567,
      "Ġà¤ªà¤ļ": 1568,
      "ĠâĢĿ-": 1569,
      "Ġà¤ħà¤ªà¤®": 1570,
      "Ġà¤ħà¤ķà¤¬à¤°": 1571,
      "Ġà¤ħà¤µà¤ľ": 1572,
      "13": 1573,
      "à¤ªà¤¥": 1574,
      "Ġà¤Ĺà¤¨": 1575,
      "à¤§à¤µ": 1576,
      "ĠW": 1577,
      "à¤ķà¤²à¤¤": 1578,
      "Ġ22": 1579,
      "vi": 1580,
      "ĠY": 1581,
      "iii": 1582,
      "Ġà¤ĩà¤¨à¤¸": 1583,
      "Ġ27": 1584,
      "ur": 1585,
      "à¤Ĺà¤¢": 1586,
      "à¥Īà¤Ĥ;": 1587,
      "Ġà¤ªà¤²à¤Ł": 1588,
      "Ġ31": 1589,
      "hi": 1590,
      ":-": 1591,
      "Ġà¤¸à¤¤à¤¹": 1592,
      "à¤Ľà¤¨": 1593,
      "à¤¡à¤ķ": 1594,
      "Ġà¤ľà¤²à¤µ": 1595,
      "ow": 1596,
      "Ġà¤ĸà¤¤": 1597,
      "Ġà¤ħà¤¹à¤®": 1598,
      "à¤īà¤ľ": 1599,
      "Ġà¤ĳà¤¡": 1600,
      ">>": 1601,
      "Ġà¤ıà¤ĸ": 1602,
      "Ġà¤ħà¤¯": 1603,
      "Ġà¤Łà¤°": 1604,
      "Ġà¤¸à¤¹à¤ľ": 1605,
      "Ġà¤Ńà¤¤": 1606,
      "Ġà¤Ńà¤Łà¤ķ": 1607,
      "à¤¯à¤ľ": 1608,
      "Ġ21": 1609,
      "Ġà¤¬à¤¹à¤¨": 1610,
      "à¤²à¤Ĺà¤ĩà¤¨": 1611,
      "Ġà¤¸à¤®à¤Ĺ": 1612,
      "à¤ķà¤®à¤¤": 1613,
      "fo": 1614,
      "à¤¨à¤·": 1615,
      "à¤Ľà¤¡": 1616,
      "à¤°à¤ķà¤¤": 1617,
      "à¤łà¤¤": 1618,
      "Ġ2000": 1619,
      "Ġà¤Ĩà¤®à¤¤": 1620,
      "ĠâĢ¦": 1621,
      "à¤¦à¤µ": 1622,
      "ÂµÃł": 1623,
      "à¤ŀà¤¤": 1624,
      "Â¤Â¦": 1625,
      "Ġà¤Ĩà¤¸à¤ª": 1626,
      "Ġà¤¨à¤ķà¤¦": 1627,
      "em": 1628,
      "www": 1629,
      "à¤Ĳà¤¸": 1630,
      "Ġà¤¸à¤¶à¤ķ": 1631,
      "Ġ80": 1632,
      "Ġà¤¹à¤Łà¤ķà¤°": 1633,
      "Ġà¤®à¤¹à¤²": 1634,
      "à¤Ĺà¤£à¤¨": 1635,
      "Ġà¤°à¤¹à¤¸": 1636,
      "Ġ192": 1637,
      "Ġ1961": 1638,
      "Ġà¤ļà¤Ł": 1639,
      "à¤īà¤¦": 1640,
      "Ġà¤®à¤£": 1641,
      "Â¤Âı": 1642,
      "Ġà¥«": 1643,
      "à¤¤à¤ķà¤°": 1644,
      "à¤¦à¤ª": 1645,
      "à¤¼à¤¾à¥¤": 1646,
      "Ġà¤ħà¤Ł": 1647,
      "Ġà¤ĩà¤¸à¤¨": 1648,
      "à¤£à¤ķ": 1649,
      "Ġà¤īà¤ªà¤ĸ": 1650,
      "ĠâĢİ": 1651,
      "Ġà¤ıà¤¡": 1652,
      "à¤®à¤°à¤£": 1653,
      "Ġà¤¤à¤¯à¤¶": 1654,
      "Ġà¤Ńà¤¡": 1655,
      "Ġà¤¸à¤¹à¤¨": 1656,
      "2018": 1657,
      "Ġ()": 1658,
      "08": 1659,
      "Ġà¤¬à¤ļà¤¤": 1660,
      "og": 1661,
      "Â¤Âľ": 1662,
      "à¤¡à¤ª": 1663,
      "Ġà¤ħà¤µà¤¤à¤°": 1664,
      "Ġà¥ª": 1665,
      "Ġà¤ĸà¤¨": 1666,
      "à¥ģà¤ĥ": 1667,
      "info": 1668,
      "à¤°à¤ļà¤²": 1669,
      "Â¤ÂĹ": 1670,
      "Ġà¤ļà¤¤": 1671,
      "à¤¡à¤¬": 1672,
      "Ġà¤ĸà¤£": 1673,
      "Ġà¤Ĩà¤°à¤ķ": 1674,
      "Â¼": 1675,
      "Ġà¤ıà¤¹à¤¸": 1676,
      "Ġà¤ıà¤ª": 1677,
      "lease": 1678,
      "dia": 1679,
      "Ġà¤µà¤°à¤¨": 1680,
      "à¤ľà¤§": 1681,
      "Ġà¤«à¤ľ": 1682,
      "Â¤Â¡": 1683,
      "18": 1684,
      "à¤²à¤¹": 1685,
      "à¤¸à¤µà¤°": 1686,
      "\\\\": 1687,
      "à¤¶à¤¸": 1688,
      "à¤®à¤Ĺà¤°": 1689,
      "à¥ĩ!": 1690,
      "Ġà¤ľà¤¨à¤ľ": 1691,
      "AN": 1692,
      "ĠX": 1693,
      "à¤¤à¤¬": 1694,
      "Ġà¤®à¤¤à¤¦": 1695,
      "Ġà¤ħà¤¨à¤¨": 1696,
      "Ġ2015": 1697,
      "Ġà¤ħà¤¹à¤²": 1698,
      "Ġ40": 1699,
      "Ġà¤īà¤ªà¤¦": 1700,
      "à¥Ī?\"": 1701,
      "Ġà¤ļà¤®": 1702,
      "15": 1703,
      "à¤ªà¤°à¤¸": 1704,
      "Ġà¤ľà¤¯": 1705,
      "Ġ2014": 1706,
      "Ġà¤«à¤°à¤µà¤°": 1707,
      "ome": 1708,
      "à¤Ĺà¤ł": 1709,
      "Ġà¤Ĺà¤¦": 1710,
      "Ġà¤ļà¤®à¤ķ": 1711,
      "à¤¾:": 1712,
      "Ġà¤ªà¤°à¤¦": 1713,
      "à¥ĭ;": 1714,
      "à¤¹à¤Ĺ": 1715,
      "ag": 1716,
      "Ġà¤®à¤ļ": 1717,
      "Ġà¤µà¤Ĺ": 1718,
      "Ġà¤ĸà¤ľ": 1719,
      "à¤¼à¤¾)": 1720,
      "Comment": 1721,
      "à¤ıà¤ļ": 1722,
      "à¤ģ,": 1723,
      "Ġqu": 1724,
      "Ġà¤¸à¤¹à¤Ń": 1725,
      "à¤¯à¤¬": 1726,
      "Ġy": 1727,
      ")...": 1728,
      "Ġà¤ľà¤ľ": 1729,
      "Ġà¤¬à¤®": 1730,
      "us": 1731,
      "à¤ªà¤£à¤¨": 1732,
      "Ġà¤ªà¤°à¤¤": 1733,
      "Ġà¤ħà¤µà¤ķ": 1734,
      "à¤¤à¤¸": 1735,
      "Ġà¥¬": 1736,
      "à¤ľà¤Ń": 1737,
      "Ġto": 1738,
      "Ġà¤ħà¤¸à¤°": 1739,
      "ĠV": 1740,
      "Ġà¤Ĺà¤¡": 1741,
      "à¤¶à¤ĸ": 1742,
      "Ġà¤ķà¤·": 1743,
      "Ġà¤Ĩà¤ĩ": 1744,
      "Ġà¤īà¤łà¤¤": 1745,
      "à¤Ĺà¤¶": 1746,
      "à¤Īà¤¯": 1747,
      "Ġà¤¹à¤®à¤ķ": 1748,
      "Ġ2013": 1749,
      "à¤ħà¤§": 1750,
      "Ġi": 1751,
      "à¤ķà¤¥": 1752,
      "Ġquot": 1753,
      "Ġà¤Ńà¤°à¤¨": 1754,
      "09": 1755,
      "à¤¸à¤ªà¤°": 1756,
      "à¤²à¤¦": 1757,
      "Ġ>>": 1758,
      "à¤«à¤²à¤¤": 1759,
      "à¥¯": 1760,
      "2014": 1761,
      "Ġà¤¦à¤«": 1762,
      "Ġà¤ªà¤¹à¤¨": 1763,
      "à¤¸à¤¹": 1764,
      "AT": 1765,
      "Ġà¤Ľà¤ª": 1766,
      "Ġà¤ªà¤°à¤µ": 1767,
      "à¤ľà¤¨à¤¨": 1768,
      "Ġà¤ľà¤Ĺà¤¤": 1769,
      "Ġà¤Ĭà¤¤à¤ķ": 1770,
      "Ġà¤¬à¤ľà¤Ł": 1771,
      "Ġà¤ķà¤¹à¤²": 1772,
      "Ġ35": 1773,
      "and": 1774,
      "SL": 1775,
      "Ġà¤¸à¤¸": 1776,
      "Ġà¤¬à¤Ł": 1777,
      "ion": 1778,
      "à¤¸à¤ķà¤°": 1779,
      "ation": 1780,
      "ist": 1781,
      "Ġà¤īà¤ªà¤ľ": 1782,
      "Â¤Â«": 1783,
      "Ġà¤®à¤Ĺ": 1784,
      "à¥Ĭ": 1785,
      "india": 1786,
      "ad": 1787,
      "Ġà¤°à¤¤": 1788,
      "âĢĶ": 1789,
      "Ġà¤Ńà¤Ł": 1790,
      "as": 1791,
      "à¥Ģ!": 1792,
      "Ġà¤¸à¤¤à¤¤": 1793,
      "etail": 1794,
      "Ġ*": 1795,
      "oc": 1796,
      "à¤®à¤¶": 1797,
      "à¤£à¤µ": 1798,
      "07": 1799,
      "ate": 1800,
      "Ġà¤²à¤ķà¤¡": 1801,
      "Ġ</": 1802,
      "OR": 1803,
      "à¤¼,": 1804,
      "Ġà¤Ĺà¤¢": 1805,
      "AP": 1806,
      "à¤¯à¤®à¤¨": 1807,
      "Ġv": 1808,
      "à¤Ĩà¤ľ": 1809,
      "Ġà¤¬à¤ļà¤¨": 1810,
      "60": 1811,
      "Ġà¤ħà¤ªà¤µ": 1812,
      "Ġà¤¬à¤¦à¤ķ": 1813,
      "press": 1814,
      "à¥Ĥà¤Ĥ,": 1815,
      "Ġà¤ķà¤¥à¤¨": 1816,
      "Ġà¤¨à¤¤": 1817,
      "Ġà¤ķà¤ļà¤°": 1818,
      "à¤¹à¤²à¤¤": 1819,
      "à¤Īà¤®": 1820,
      "à¤¸à¤®à¤Ŀ": 1821,
      "Ġà¤ħà¤®à¤²": 1822,
      "à¤°à¤®à¤¶": 1823,
      "Ġà¤¬à¤¦à¤²à¤¤": 1824,
      "à¥ĩà¤Ĥ-": 1825,
      "à¤¯à¤ķà¤°": 1826,
      "à¤Īà¤¸": 1827,
      "Ġà¤ľà¤¤": 1828,
      "Ġà¤¶à¤°à¤£": 1829,
      "Ġà¤²à¤Ĺà¤¨": 1830,
      "Ġ2006": 1831,
      ").": 1832,
      "Ġà¤ħà¤¸à¤¹": 1833,
      "02": 1834,
      "à¤¸à¤ľ": 1835,
      "Ġ60": 1836,
      "à¤°à¤¬à¤¨": 1837,
      "Ġà¤ªà¤°à¤¸à¤¤": 1838,
      "Ġà¤ķà¤£": 1839,
      "Ġ29": 1840,
      "ident": 1841,
      "à¤µà¤°à¤ķ": 1842,
      "Ġà¤¨à¤²": 1843,
      "Ġà¤Ĺà¤¹à¤¨": 1844,
      "Ġr": 1845,
      "à¤¸à¤Ł": 1846,
      "à¤°à¤¹à¤µ": 1847,
      "à¤ĺà¤ķ": 1848,
      "Ġà¤®à¤¸à¤²": 1849,
      "ofindia": 1850,
      "Ġ2007": 1851,
      "Â¤Â¬": 1852,
      "president": 1853,
      "à¤¾'": 1854,
      "Ġà¤«à¤Ł": 1855,
      "release": 1856,
      "Ġfor": 1857,
      "Ġà¤¤à¤ĸ": 1858,
      "à¤īà¤¤": 1859,
      "à¥Ĩ": 1860,
      "Ġà¤¬à¤¹à¤°": 1861,
      "à¤ªà¤¬": 1862,
      ")à¥¤": 1863,
      "à¤¤à¤Ĺ": 1864,
      "presidentofindia": 1865,
      "23": 1866,
      "Ġà¤¬à¤¨à¤ķà¤°": 1867,
      "à¤ħà¤¬": 1868,
      "detail": 1869,
      "Ġà¤¸à¤°à¤ªà¤°à¤¸": 1870,
      "à¤ķà¤¶": 1871,
      "âĺ": 1872,
      "à¤¹à¤¶": 1873,
      "à¤¯à¤ķà¤²": 1874,
      "ĠUR": 1875,
      "ch": 1876,
      "ex": 1877,
      "à¥Ī:": 1878,
      "à¥į;": 1879,
      "à¤ģ.": 1880,
      "Ġà¤¦à¤®": 1881,
      "ĠâĢľ%": 1882,
      "Ġà¤ĩà¤¸à¤ªà¤°": 1883,
      "Ġ/": 1884,
      "à¤¯à¤Łà¤ķ": 1885,
      "à¤¼à¥ĩ-": 1886,
      "à¤Łà¤¸": 1887,
      "am": 1888,
      "à¤¦à¤¸": 1889,
      "à¥Ĥ,": 1890,
      "Ġà¤ĳà¤ªà¤°": 1891,
      "ĠâĢĺâĢĺ": 1892,
      "IN": 1893,
      "Ġà¤¦à¤¹": 1894,
      "\",": 1895,
      "05": 1896,
      "AR": 1897,
      "Ġà¤¶à¤²": 1898,
      "Ġ2005": 1899,
      "Ġà¤®à¤°à¤¨": 1900,
      "à¥ĭà¤Ĥ-": 1901,
      "Ġà¤Ķà¤ªà¤ļ": 1902,
      "ao": 1903,
      "à¤¶à¤²à¤¤": 1904,
      "Ġà¤Ńà¤°à¤¤": 1905,
      "Ġà¤Ĩà¤īà¤Łà¤ª": 1906,
      "à¤¨à¤µà¤¤": 1907,
      "à¥Ĥ.": 1908,
      "à¤¸à¤Ń": 1909,
      "à¤ªà¤¹à¤²": 1910,
      "Ġà¤Ĺà¤µà¤°": 1911,
      "Â¤Â¶": 1912,
      "Ġà¤®à¤¦à¤¦à¤Ĺ": 1913,
      "Ġà¤Ĩà¤ļà¤°à¤£": 1914,
      "à¤¦à¤¨à¤¶": 1915,
      "Ġà¤¬à¤¹à¤ķ": 1916,
      "Ġà¤ľà¤¨à¤°à¤²": 1917,
      "Ġà¤Ĩà¤¡": 1918,
      "Ġà¤·": 1919,
      "-#-#-#-#": 1920,
      "Ġà¤īà¤Ńà¤°": 1921,
      "à¤¬à¤°à¤¦à¤¸": 1922,
      "25": 1923,
      "Ġà¤ĩà¤¨à¤ª": 1924,
      "Ġ#-#-#-#-#": 1925,
      "ub": 1926,
      "Ġà¤ıà¤¹à¤¦": 1927,
      "à¤¯à¤·": 1928,
      "à¤ıà¤µ": 1929,
      "à¤£à¤¸": 1930,
      "Ġà¤«à¤²à¤¸": 1931,
      "ia": 1932,
      "Ġà¤¬à¤¹à¤¸": 1933,
      "Ġà¤¦à¤°à¤¬": 1934,
      "Ġre": 1935,
      "/-": 1936,
      "30": 1937,
      "Ġ2016": 1938,
      "17": 1939,
      "à¤¿/": 1940,
      "Ġà¤°à¤¨": 1941,
      "à¤¡à¤ķà¤°": 1942,
      "Ġcom": 1943,
      "ng": 1944,
      "à¤¯à¤¤à¤¯": 1945,
      "Ġà¤Ĩà¤¦à¤¤": 1946,
      "à¤ļà¤¤à¤°": 1947,
      "Ġà¤īà¤ªà¤¹": 1948,
      "Ġà¤ªà¤¥à¤Ń": 1949,
      "à¥Īà¤Ĥ:": 1950,
      "à¤¥à¤¤": 1951,
      "à¥Ģ'": 1952,
      "Ġà¤ħà¤£": 1953,
      "à¤²à¤ª": 1954,
      "Ġà¤Ĩà¤ªà¤°": 1955,
      "Ġà¥§à¥«": 1956,
      "à¤¸à¤«": 1957,
      "à¤ĩà¤¸à¤ķ": 1958,
      "Ġà¤ħà¤²à¤¬à¤¤": 1959,
      "Ġà¤µà¤¨à¤¸": 1960,
      "âĺ»": 1961,
      "Ġà¤ıà¤°": 1962,
      "à¤«à¤¤": 1963,
      "à¤Ĩà¤§": 1964,
      "à¤²à¤ļà¤¸": 1965,
      "à¤¤à¤¯": 1966,
      "à¤¬à¤µ": 1967,
      "à¤¼à¤Ĥ": 1968,
      "Ġà¤°à¤ĸà¤ķà¤°": 1969,
      "à¤ļà¤µ": 1970,
      "Ġà¤¸à¤ªà¤¨": 1971,
      "Ġ32": 1972,
      "Ġà¤ħà¤µà¤²": 1973,
      "Ġà¤Ĩà¤ķà¤²à¤¨": 1974,
      "Ġ2001": 1975,
      "à¤ĩà¤°": 1976,
      "à¥Ĥà¤ģà¥¤\"": 1977,
      "Ġà¤Ńà¤Ĺ": 1978,
      "à¤¯à¤°à¤¤": 1979,
      "à¤Ĺà¤£à¤ķ": 1980,
      "ld": 1981,
      "à¤ģà¥¤": 1982,
      "Ġ2012": 1983,
      "Ġà¤¥à¤ķ": 1984,
      "Ġà¤ĵà¤¡": 1985,
      "à¤Ĩà¤¯": 1986,
      "Â¥ÂĪ": 1987,
      "03": 1988,
      "06": 1989,
      "ay": 1990,
      "tr": 1991,
      "Ġà¤°à¤ļ": 1992,
      "à¤ļà¤°à¤£": 1993,
      "Ġà¤Ńà¤°à¤ª": 1994,
      "à¥ĭà¤Ĥ!": 1995,
      "Ġà¤¨à¤µà¤®": 1996,
      "2015": 1997,
      "à¤°à¤ľà¤¨à¤¨": 1998,
      "à¤µà¤£": 1999,
      ".âĢĵ": 2000,
      "à¤¯à¤µà¤°": 2001,
      "à¤¾%": 2002,
      "à¤°à¤¦à¤¤": 2003,
      "ind": 2004,
      "04": 2005,
      "AME": 2006,
      "Ġà¤ķà¤¤à¤°": 2007,
      "Ġ115": 2008,
      "à¤į": 2009,
      "à¤¦à¤¦": 2010,
      "Ġà¤¤à¤¸à¤¬": 2011,
      "à¤¹à¤°à¤²": 2012,
      "Ġà¤ħà¤¹à¤®à¤¦": 2013,
      "th": 2014,
      "à¤ļà¤ķà¤°": 2015,
      "à¤ľà¤ªà¤¤": 2016,
      "à¤¨à¤ļ": 2017,
      "Ġor": 2018,
      "Ġà¤ıà¤ķà¤¦à¤®": 2019,
      "Ġà¤¸à¤ļà¤®": 2020,
      "Ġà¤¬à¤°à¤¤": 2021,
      "Ġà¤ĩà¤ĸ": 2022,
      "à¥Ģà¤Ĥ?": 2023,
      "Ġà¤²à¤²": 2024,
      "um": 2025,
      "Ġcon": 2026,
      "Ġà¤¢à¤ķ": 2027,
      "à¤¾âĢĻ": 2028,
      "ĠK": 2029,
      "Ġà¤ĩà¤¶": 2030,
      "à¤¾?\"": 2031,
      "à¤¡à¤¸": 2032,
      "ener": 2033,
      "Ġà¤ħà¤«à¤Ĺ": 2034,
      "ter": 2035,
      "Ġà¤ķà¤°à¤®": 2036,
      "Ġ2008": 2037,
      "Ġà¤°à¤£à¤¨": 2038,
      "à¤¼à¤¾,": 2039,
      "Ġà¤Ĩà¤¶à¤¯": 2040,
      "à¥ĩ/": 2041,
      "Â¥Âģ": 2042,
      "eat": 2043,
      "Ġà¤¨à¤°à¤®": 2044,
      "Ġà¤¸à¤®à¤¤": 2045,
      "Ġà¤¹à¤ķà¤¦": 2046,
      "ov": 2047,
      "à¤µà¤Ĺ": 2048,
      "à¤ħà¤Ń": 2049,
      "od": 2050,
      "Ġà¤®à¤°à¤®": 2051,
      "à¤¼à¥ĩà¥¤": 2052,
      "Ġà¤¸à¤Ł": 2053,
      "Ġà¤ıà¤¯à¤°": 2054,
      "à¤ľà¤¦": 2055,
      "199": 2056,
      "RAN": 2057,
      "à¤¾à¤¾": 2058,
      "Ġà¤¸à¤ķà¤²": 2059,
      "à¤¨à¤¶": 2060,
      "Ġà¥¦": 2061,
      "Ġà¤ĩà¤·": 2062,
      "Ġà¤ĸà¤¬à¤°": 2063,
      "à¤°à¤¬à¤²": 2064,
      "Ġà¤¯à¤¤": 2065,
      "Ġà¤ħà¤µà¤¯à¤µ": 2066,
      "Ġà¤Ĩà¤Īà¤¡": 2067,
      "Ġà¥§à¥®": 2068,
      "85": 2069,
      "à¥į,": 2070,
      "à¤«à¤°à¤®": 2071,
      "à¤ľà¤°à¤¤": 2072,
      "à¤ĸà¤¡": 2073,
      "ap": 2074,
      "Ġà¤¦à¤°à¤ĸ": 2075,
      "à¤ķà¤¸à¤Ń": 2076,
      "Ġà¤¸à¤¤à¤°": 2077,
      "Ġà¤®à¤¤à¤Ń": 2078,
      "os": 2079,
      "à¤ķà¤ħà¤ª": 2080,
      "Ġà¤²à¤¹à¤°": 2081,
      "Ġà¤§à¤¨à¤°": 2082,
      "à¤Ĩà¤ªà¤ķ": 2083,
      "Ġà¤ĩà¤¤à¤°": 2084,
      "Ġà¤¬à¤¹à¤¤": 2085,
      "his": 2086,
      "à¤²à¤¡": 2087,
      "à¤ľà¤¹à¤¨": 2088,
      "Â¥ÂĤ": 2089,
      "à¤¹à¤¨à¤¤": 2090,
      "Ġà¤®à¤°à¤¤": 2091,
      "à¤¦à¤ķà¤¤": 2092,
      "age": 2093,
      "à¤¨à¤Ĺà¤°": 2094,
      "à¤Ĩà¤īà¤Ł": 2095,
      "à¤«à¤ķ": 2096,
      "eather": 2097,
      "Â¤Âĩ": 2098,
      "----": 2099,
      "Ġà¤¸à¤ķà¤¨": 2100,
      "Ġà¤§à¤®à¤ķ": 2101,
      "Ġ2002": 2102,
      "2013": 2103,
      "hat": 2104,
      "à¤¼à¥Ģ-": 2105,
      "à¤Ĭà¤¦": 2106,
      "à¤ķà¤£": 2107,
      "à¤·à¤ª": 2108,
      "à¤²à¤ľ": 2109,
      "Ġà¤µà¤¶": 2110,
      "li": 2111,
      "à¥ĩà¤ĥ": 2112,
      "Ġà¤¤à¤¹": 2113,
      "à¤ļà¤²à¤¨": 2114,
      "à¥Īà¥¤-": 2115,
      "2016": 2116,
      "Ġà¤¶à¤¹": 2117,
      "à¤¾à¤ģ)": 2118,
      "à¤¯à¤Ń": 2119,
      "Ġà¤¤à¤¦à¤¨": 2120,
      "à¤¬à¤Ĺ": 2121,
      "à¤¯à¤Ł": 2122,
      "à¥īà¤Ĥ": 2123,
      "ĠHT": 2124,
      "!\"": 2125,
      "Ġ1999": 2126,
      "22": 2127,
      "à¥ĩ%": 2128,
      "Ġà¤ħà¤Łà¤²": 2129,
      "Ġà¤®à¤¨à¤ªà¤¸": 2130,
      "ew": 2131,
      "à¤¸à¤¶": 2132,
      "Ġà¤ħà¤Ĺà¤°à¤ļ": 2133,
      "ef": 2134,
      "Â¤Âļ": 2135,
      "Ġ`": 2136,
      "Ġ90": 2137,
      "ML": 2138,
      "ul": 2139,
      "Ġà¤¨à¤ķà¤²": 2140,
      "ĠComment": 2141,
      "Ġà¤µà¤ľ": 2142,
      "Ġà¥Ń": 2143,
      "à¤ªà¤Łà¤¨": 2144,
      "à¤¶à¤®à¤¨": 2145,
      "Ġà¤ĳà¤¸": 2146,
      "ĠJ": 2147,
      "à¤¦à¤¹": 2148,
      "Ġà¤Ľà¤ł": 2149,
      "Ġà¤°à¤«": 2150,
      "à¤¼à¥ĩ,": 2151,
      "à¤²à¤Ŀ": 2152,
      "Ġà¤ªà¤¬": 2153,
      "à¤ĸà¤£": 2154,
      "bo": 2155,
      "à¤¼à¥ĩ)": 2156,
      "à¥ĩ?\"": 2157,
      "à¤¼à¥Ģ)": 2158,
      "Ġ36": 2159,
      "Ġà¤¬à¤¦à¤°": 2160,
      "Ġà¤Ĩà¤µà¤°à¤£": 2161,
      "Ġà¤ıà¤¹à¤ķ": 2162,
      "à¤īà¤ª": 2163,
      "un": 2164,
      "Ġo": 2165,
      "à¤ıà¤®à¤Ī": 2166,
      "weather": 2167,
      "à¤Ĺà¤ª": 2168,
      "Ġà¤¨à¤®à¤ķ": 2169,
      "Ġà¤ļà¤®à¤¤": 2170,
      "à¤µà¤¥": 2171,
      "ers": 2172,
      "Ġà¤¬à¤°à¤¬": 2173,
      "ort": 2174,
      "Ġà¤ıà¤¨à¤ķ": 2175,
      "à¤Ńà¤¦": 2176,
      "Ġà¤ħà¤¤à¤ıà¤µ": 2177,
      "Ġà¤ĵà¤ªà¤¨": 2178,
      "Ġà¥§à¥¦": 2179,
      "Ġà¤ıà¤Ł": 2180,
      "Ġ45": 2181,
      "à¤¨à¤¯à¤¨": 2182,
      "à¤Ĺà¤¸": 2183,
      "à¤¶à¤¹": 2184,
      "Ġà¤Ĩà¤¯à¤ķà¤°": 2185,
      "Ġà¤Ĺà¤®": 2186,
      "à¤¿à¤ĥ%": 2187,
      "Ġà¤¨à¤¶": 2188,
      "Ġà¤¶à¤¸": 2189,
      "ig": 2190,
      "Ġà¤Ĩà¤ªà¤¦": 2191,
      "Ġà¤ªà¤¤à¤²": 2192,
      "à¤·à¤°à¤¤": 2193,
      "mp": 2194,
      "à¤¸à¤ĸ": 2195,
      "à¤®à¤§": 2196,
      "à¤®à¤ķà¤¤": 2197,
      "Ġà¤¹à¤«": 2198,
      "Ġà¤ħà¤ĸà¤¬": 2199,
      "à¤¸à¤°à¤ķ": 2200,
      "Ġà¤¦à¤¤": 2201,
      "Ġà¤ļà¤¶": 2202,
      "à¤Ĩà¤°à¤ı": 2203,
      "ĠOF": 2204,
      "ric": 2205,
      "Ġà¤¹à¤®à¤ªà¤°": 2206,
      "Ġà¤¡à¤¬": 2207,
      "ER": 2208,
      "Ġ$": 2209,
      "à¤ħà¤ķ": 2210,
      "Ġà¤ĵà¤¬": 2211,
      "Ġà¥®": 2212,
      "ĠTRAN": 2213,
      "Ġà¤¸à¤¹à¤¸": 2214,
      "ORS": 2215,
      "Ġà¤µà¤¹à¤¨": 2216,
      "Ġà¤ĸà¤¤à¤°à¤¨": 2217,
      "ATORS": 2218,
      "SLATORS": 2219,
      "ĠTRANSLATORS": 2220,
      "à¤Ĺà¤®à¤¨": 2221,
      "wor": 2222,
      "Ġà¤ĺà¤¬à¤°": 2223,
      "ke": 2224,
      "24": 2225,
      "à¤Ńà¤¨": 2226,
      "à¤Ĩà¤Īà¤¸": 2227,
      "à¤Ĺà¤ķ": 2228,
      "à¤²à¤Ł": 2229,
      "à¤°à¤Ĺà¤°": 2230,
      "Ġà¤µà¤²": 2231,
      "Ġà¤µà¤ľà¤¨": 2232,
      "Ġà¤¹à¤®à¤®": 2233,
      "Ġà¤ĵà¤µà¤°": 2234,
      "Ġ2011": 2235,
      "Âħ": 2236,
      "Ġà¤īà¤²à¤Ŀ": 2237,
      "à¤ªà¤°à¤µ": 2238,
      "Ġ2004": 2239,
      "à¤ıà¤Ł": 2240,
      "TP": 2241,
      "ĠÂ": 2242,
      "Ġà¤ľà¤¨à¤¨": 2243,
      "Ġà¤ĩà¤¬à¤°à¤¤": 2244,
      "Ġà¤¬à¤ķà¤°": 2245,
      "Ġà¤²à¤¶": 2246,
      "Ġà¤«à¤²à¤ķ": 2247,
      "à¤Ĩà¤ª": 2248,
      "Ġà¤¬à¤ļà¤ªà¤¨": 2249,
      "ess": 2250,
      "Ġ2003": 2251,
      "ĠCon": 2252,
      "Â¤Âĸ": 2253,
      "à¤ıà¤¶à¤¨": 2254,
      "Ġà¤®à¤¹à¤«": 2255,
      "Ġ189": 2256,
      "à¤¾à¤ģ-": 2257,
      "Ġ75": 2258,
      "Ġà¤ĺà¤°à¤µ": 2259,
      "à¤ħà¤Ĺà¤°": 2260,
      "194": 2261,
      "Ġit": 2262,
      "à¤µà¤®": 2263,
      "à¤¹à¤®à¤¨": 2264,
      "olor": 2265,
      "Ġ33": 2266,
      "Ġà¤Ĩà¤®à¤¦à¤¨": 2267,
      "lab": 2268,
      "à¥Īà¤ĥ%": 2269,
      "à¤·à¤Ĺ": 2270,
      "Ġà¤īà¤ªà¤Ĺ": 2271,
      "Ġà¤¢à¤²": 2272,
      "tle": 2273,
      "yp": 2274,
      "Ġà¤²à¤ª": 2275,
      "Ġst": 2276,
      "à¤ļà¤¢": 2277,
      "à¤µà¤¤à¤¨": 2278,
      "à¤¥à¤Ĺ": 2279,
      "à¤¯à¤¡": 2280,
      "Ġà¤¸à¤°à¤¸": 2281,
      "à¤Łà¤¬": 2282,
      "à¤Ńà¤ª": 2283,
      "Ġà¤ĺà¤®": 2284,
      "à¤ĩà¤¤à¤¨": 2285,
      "nome": 2286,
      "Ġà¤Ĩà¤Īà¤Ł": 2287,
      "Ġà¤®à¤¹à¤°": 2288,
      "à¤¤à¤¶": 2289,
      "à¤¼à¤¾-": 2290,
      "Ġà¤¬à¤¨à¤µ": 2291,
      "à¤īà¤¨à¤¸": 2292,
      "à¤£à¤¤à¤¯": 2293,
      "Ġà¥§à¥¯à¥¯à¥": 2294,
      "Ġà¤ħà¤µà¤¤": 2295,
      "Ġà¤ĭà¤·": 2296,
      "à¤·à¤¸": 2297,
      "à¥ħà¤¾": 2298,
      "âĺ»âĺ»": 2299,
      "Ġà¤®à¤ĸ": 2300,
      "Ġà¤¦à¤°à¤ľ": 2301,
      "Ġra": 2302,
      "à¥Ģ:": 2303,
      "Ġà¤ªà¤łà¤¨": 2304,
      "195": 2305,
      "Ġà¤Ĺà¤£à¤¤": 2306,
      "à¤¤à¤¨à¤¤": 2307,
      "à¤ıà¤¬": 2308,
      "à¤¬à¤ĸ": 2309,
      "à¤Ĩà¤ķ": 2310,
      "à¤ªà¤¹": 2311,
      "à¤ªà¤µ": 2312,
      "Ġà¤ħà¤«à¤¸": 2313,
      "à¤Łà¤ħà¤ª": 2314,
      "à¤Ńà¤²": 2315,
      "Ġà¤Ĩà¤Īà¤¸": 2316,
      "lation": 2317,
      "Ġ;": 2318,
      "Ġà¥§à¥¨": 2319,
      "à¤ıà¤«à¤¸": 2320,
      "Ġà¤ĭà¤¤": 2321,
      "à¤¤à¤¹": 2322,
      "Ġà¤¤à¤°à¤²": 2323,
      "Ġà¤ªà¤ł": 2324,
      "Ġà¤¯à¤ľ": 2325,
      "Ġà¤¦à¤°à¤Ĺ": 2326,
      "Ġ44": 2327,
      "Ġ2017": 2328,
      "Ġà¤µà¤¯à¤¸": 2329,
      "Ġà¤°à¤¹à¤ķà¤°": 2330,
      "IL": 2331,
      "Ġà¤¦à¤®à¤¨": 2332,
      "Ġà¤ķà¤ªà¤Ł": 2333,
      "ree": 2334,
      "Ġà¤¹à¤¨": 2335,
      "39": 2336,
      "à¤ķà¤¦": 2337,
      "à¤ħà¤¸": 2338,
      "à¤¦à¤°à¤Ĺ": 2339,
      "lic": 2340,
      "Ġà¤īà¤·": 2341,
      "à¤«à¤¡": 2342,
      "Ġà¤°à¤ĸà¤°à¤ĸ": 2343,
      "à¤Łà¤«": 2344,
      "à¤Ĩà¤®": 2345,
      "Ġà¥¨à¥¦": 2346,
      "MA": 2347,
      "Ġtranslat": 2348,
      "ct": 2349,
      "Â¤Âģ": 2350,
      "Ġà¤ıà¤£": 2351,
      "Ġà¤ļà¤°à¤®": 2352,
      "ting": 2353,
      "Ġ(.": 2354,
      "II": 2355,
      "à¤³": 2356,
      "/%": 2357,
      "Ġà¤īà¤¬": 2358,
      "à¤«à¤¸": 2359,
      "nu": 2360,
      "Ġme": 2361,
      "à¥ĩà¤Ĥ;": 2362,
      "à¤Īà¤Ł": 2363,
      "Â¤ÂĨ": 2364,
      "Ġà¤®à¤¨à¤®": 2365,
      "à¤«à¤²à¤ķ": 2366,
      "Ġà¤Ĩà¤ªà¤¤": 2367,
      "à¤¼à¥Ģ,": 2368,
      "Ġà¤¬à¤¶à¤°": 2369,
      "Ġà¤ĳà¤Ł": 2370,
      "Ġà¤¤à¤°à¤ķ": 2371,
      "à¤¤à¤°à¤¹": 2372,
      "mi": 2373,
      "à¤£à¤®": 2374,
      "Ġà¤īà¤łà¤¨": 2375,
      ",%": 2376,
      "Ġis": 2377,
      "end": 2378,
      "à¤§à¤ª": 2379,
      "Ġà¤¶à¤ªà¤¥": 2380,
      "Ġà¤ıà¤¨à¤ª": 2381,
      ".)": 2382,
      "oo": 2383,
      "à¤¦à¤Ń": 2384,
      "à¤¬à¤§": 2385,
      "à¤¡à¤¤": 2386,
      "Ġ185": 2387,
      "nd": 2388,
      "à¤Ŀà¤ķ": 2389,
      "Ġà¤¨à¤ľà¤¦": 2390,
      "Ġà¤Ĩà¤µà¤°": 2391,
      "à¤Łà¤°à¤ª": 2392,
      "Ġ34": 2393,
      "Ġà¤łà¤¹à¤°à¤¨": 2394,
      "vir": 2395,
      "à¤Ŀà¤ªà¤°": 2396,
      "Ġà¤Łà¤ķà¤°": 2397,
      "Ġà¤§à¤ķ": 2398,
      "erv": 2399,
      "hou": 2400,
      "Ġà¤Ĩà¤Ĺà¤°": 2401,
      "Ġ1956": 2402,
      "Ġà¤Ĩà¤ĺ": 2403,
      "Ġà¤Ĺà¤ľ": 2404,
      "ve": 2405,
      "Ġà¤Ĩà¤ľà¤ķà¤²": 2406,
      "Ġ188": 2407,
      "ect": 2408,
      "ast": 2409,
      "à¤ķà¤¬": 2410,
      "Ġà¤ľà¤¨à¤ķ": 2411,
      "Ġà¤ªà¤°à¤ľ": 2412,
      "Ġà¤ĩà¤¸à¤¹": 2413,
      "Ġà¤Ĩà¤ķà¤¸": 2414,
      "à¤¹à¤µ": 2415,
      "Ġà¤¬à¤¸à¤µ": 2416,
      "Ġà¤ĳà¤ķ": 2417,
      "à¤ķà¤Ī": 2418,
      "Ġà¤¬à¤°à¤ķà¤¤": 2419,
      "stel": 2420,
      "à¤ĩà¤¬à¤°": 2421,
      "Ġ2010": 2422,
      "Ġ~": 2423,
      "à¥Ĥà¤ģ.": 2424,
      "à¤ŀà¤ª": 2425,
      "à¤®à¤Ł": 2426,
      "à¤ħà¤®": 2427,
      "Ġ70": 2428,
      "à¤µà¤ļà¤¨": 2429,
      "Ġà¤¬à¤Ľà¤¡": 2430,
      "ss": 2431,
      "à¤®à¤ļà¤¨": 2432,
      "à¤¹à¤£": 2433,
      "Ġ2009": 2434,
      "ĠURL": 2435,
      "Ġà¤¤à¤¦à¤¬": 2436,
      "à¤£à¤Ĺ": 2437,
      "Ġbe": 2438,
      "Ġà¤ķà¤µà¤°": 2439,
      "à¤Ĺà¤Łà¤¨": 2440,
      "Ġà¤¤à¤¦": 2441,
      "à¤Ńà¤°à¤¤": 2442,
      "à¤°à¤¸à¤µ": 2443,
      "à¤ıà¤®à¤ıà¤²": 2444,
      "à¤¤à¤°à¤ķ": 2445,
      "ĠâĢĻ": 2446,
      "stellation": 2447,
      "ile": 2448,
      "à¤¤à¤¦": 2449,
      "197": 2450,
      "à¤ªà¤¹à¤°": 2451,
      "Ġà¤¬à¤Ĺà¤²": 2452,
      "Ġ48": 2453,
      "198": 2454,
      "IS": 2455,
      "ON": 2456,
      "à¤ĩà¤«": 2457,
      "Ġà¤Ĩà¤Ĺà¤®à¤¨": 2458,
      "à¤²à¤¯à¤¨": 2459,
      "à¤¼à¤¿à¤Ĥ": 2460,
      "ah": 2461,
      "à¤¨à¤¡": 2462,
      "Ġà¤ªà¤£": 2463,
      "à¤ľà¤®à¤¹à¤²": 2464,
      "Ġà¤·à¤¡": 2465,
      "Ġà¤«à¤¸": 2466,
      "à¤¢à¤¨": 2467,
      "Ġà¤ħà¤µà¤Ĺà¤¤": 2468,
      "à¤°à¤¸à¤°": 2469,
      "Ġ1947": 2470,
      "à¤¨à¤ªà¤°": 2471,
      "Ġà¤²à¤ľ": 2472,
      "à¤ĵà¤ıà¤¸": 2473,
      "Ġà¤ħà¤ªà¤²": 2474,
      "Ġà¤¸à¤¶à¤¸": 2475,
      "Ġà¤ªà¤¤à¤¨": 2476,
      "Ġà¤®à¤²à¤¯": 2477,
      "à¤ħà¤¯": 2478,
      "à¤¯à¤ķà¤°à¤£": 2479,
      "Ġà¤ªà¤Łà¤²": 2480,
      "Ġà¤ĩà¤§à¤°": 2481,
      "à¥Ģà¤Ĥ-": 2482,
      "Ġ37": 2483,
      "à¤®à¤²à¤µ": 2484,
      "Ġà¤ªà¤¦à¤ķ": 2485,
      "28": 2486,
      "à¤¾\"": 2487,
      "à¤¨à¤Ī": 2488,
      "à¥ĢâĢĻ": 2489,
      "Ġà¤¤à¤¸à¤¦": 2490,
      "à¤¼à¥Ģà¥¤": 2491,
      "Ġà¤®à¤°à¤¯à¤®": 2492,
      "Ġà¤ħà¤¸à¤¤": 2493,
      "ine": 2494,
      "Ġà¤į": 2495,
      "à¤¶à¤¨à¤°": 2496,
      "Ġà¤ħà¤ķà¤¡": 2497,
      "Ġà¤ĸà¤²": 2498,
      "Ġà¤ĵà¤²": 2499,
      "title": 2500,
      "are": 2501,
      "Ġà¤¦à¤¶à¤®à¤²à¤µ": 2502,
      "à¤Ĺà¤µà¤¤": 2503,
      "Ġà¤ħà¤¸à¤«à¤²à¤¤": 2504,
      "box": 2505,
      "à¤·à¤¯à¤ķ": 2506,
      "Ġpo": 2507,
      "Ġà¤Ľà¤²": 2508,
      "Â¥Âī": 2509,
      "Ġ02": 2510,
      "Ġà¤²à¤¦": 2511,
      "26": 2512,
      "ev": 2513,
      "à¤¬à¤¢": 2514,
      "à¤Łà¤ª": 2515,
      "à¤Ĩà¤°à¤ıà¤²": 2516,
      "à¥§à¥¯à¥": 2517,
      "à¤¹à¤¯": 2518,
      "à¤īà¤²": 2519,
      "à¤¯à¤°à¤§": 2520,
      "Ġà¥§à¥¬": 2521,
      "à¤¸à¤¬à¤ķ": 2522,
      "Ġà¤²à¤¤": 2523,
      "Ġà¤ħà¤ªà¤¶": 2524,
      "Ġà¤¸à¤®à¤Ŀà¤¦": 2525,
      "à¤²à¤«": 2526,
      "Ġà¤¨à¤°à¤¸": 2527,
      "à¤¨à¤Ĺ": 2528,
      "Ġà¤ĳà¤°": 2529,
      "2012": 2530,
      "âĢĿà¥¤": 2531,
      "eneric": 2532,
      "Ġà¤Ĩà¤¹à¤°à¤£": 2533,
      "Ġà¤ħà¤¨à¤¦": 2534,
      "Ġà¤ķà¤ľ": 2535,
      "à¤ªà¤Łà¤²": 2536,
      "à¤§à¤°à¤£": 2537,
      "Ġà¤ĸà¤ªà¤¤": 2538,
      "à¤ķà¤ķà¤°": 2539,
      "oog": 2540,
      "à¥¯à¥": 2541,
      "Ġà¤ħà¤¥": 2542,
      "Ġà¤ıà¤ķà¤¡": 2543,
      "à¤Ŀà¤ķà¤°": 2544,
      "oogle": 2545,
      "Ġbut": 2546,
      "ext": 2547,
      "à¤®à¤ķà¤°à¤£": 2548,
      "Ġà¤ĩà¤«": 2549,
      "à¥Ĥà¤ģ?": 2550,
      "aa": 2551,
      "à¤¾à¥į": 2552,
      "à¥ĭà¤Ĥ?": 2553,
      "ĠID": 2554,
      "Ġà¤ıà¤ķà¤ľ": 2555,
      "Ġà¤¹à¤°à¤ķà¤¤": 2556,
      "Ġà¤¨à¤¨": 2557,
      "Ġà¤ıà¤®à¤ıà¤¸": 2558,
      "Ġ150": 2559,
      "ĠHTML": 2560,
      "à¤¨à¤ľà¤¨à¤ķ": 2561,
      "à¤°à¤µà¤£": 2562,
      "196": 2563,
      "pp": 2564,
      "Ġ01": 2565,
      "Ġà¤²à¤ļ": 2566,
      "Ġà¤īà¤ĸ": 2567,
      "à¤Łà¤°à¤«": 2568,
      "sp": 2569,
      "à¤¸à¤°à¤¤": 2570,
      "Ġ300": 2571,
      "Ġ187": 2572,
      "Ġ1992": 2573,
      "Ġà¤īà¤Ńà¤°à¤¤": 2574,
      "à¤°à¤¹à¤ķ": 2575,
      "Â¤Â·": 2576,
      "à¤īà¤ļ": 2577,
      "Ġ500": 2578,
      "han": 2579,
      "gu": 2580,
      "à¤Īà¤ľ": 2581,
      "à¤ĺà¤Ł": 2582,
      "à¥ĭ?\"": 2583,
      "Ġà¤ļà¤®à¤¡": 2584,
      "à¤¨à¤ľ": 2585,
      "à¤¾...": 2586,
      "à¤Ĩà¤Īà¤Ł": 2587,
      "Ãī": 2588,
      "Ġand": 2589,
      "Ġà¤ħà¤Łà¤ķà¤²": 2590,
      "à¥ĭà¤Ĥ.": 2591,
      "à¤¨à¤¸à¤Ń": 2592,
      "Ġà¤¤à¤ľ": 2593,
      "Ġà¤īà¤§à¤°": 2594,
      "Ġà¤§à¤¡": 2595,
      "Ġà¤ľà¤Ĺà¤¨": 2596,
      "af": 2597,
      "Ġà¤¯à¤®": 2598,
      "Ġà¤ĩà¤£": 2599,
      "Ġà¤Ĩà¤Īà¤ª": 2600,
      "ory": 2601,
      "ial": 2602,
      "à¤¯à¤ļ": 2603,
      "à¤ªà¤ķà¤°": 2604,
      "à¤ĩà¤¨à¤°": 2605,
      "à¤®à¤°à¤¨": 2606,
      "à¤µà¤°à¤¤": 2607,
      "à¥¦à¥¦à¥¦": 2608,
      "à¤¤à¤°à¤¤": 2609,
      "à¥Īà¤Ĥ:-": 2610,
      "Ġ\"{": 2611,
      "lami": 2612,
      "atlami": 2613,
      "viratlami": 2614,
      "}\"": 2615,
      "Ġà¤ľà¤²à¤¨": 2616,
      "Ġà¤¤à¤®à¤¨": 2617,
      "Ġà¤²à¤ĸà¤¨": 2618,
      "Ġhi": 2619,
      "OP": 2620,
      "Ġà¤Ĺà¤°à¤®": 2621,
      "Ġà¤ķà¤¹à¤ķà¤°": 2622,
      "à¤Ĩà¤Ĺ": 2623,
      "indow": 2624,
      "Ġà¤ıà¤ķà¤ķ": 2625,
      "for": 2626,
      "à¤Ĺà¤ªà¤¤": 2627,
      "à¥Ģà¤Ĥ;": 2628,
      "Ġà¤®à¤¹à¤ľ": 2629,
      "à¥ľ": 2630,
      "Ġà¤ħà¤¨à¤ľ": 2631,
      "à¤Ĩà¤¸": 2632,
      "à¤°à¤¹à¤®": 2633,
      "à¤¿;": 2634,
      "Ġà¤²à¤Łà¤ķ": 2635,
      "ĠIM": 2636,
      "21": 2637,
      "ions": 2638,
      "27": 2639,
      "ain": 2640,
      "2001": 2641,
      "label": 2642,
      "ĠQ": 2643,
      "Ġà¤ħà¤®à¤¨": 2644,
      "à¥Ģ),": 2645,
      "Ġà¤Ĩà¤łà¤µ": 2646,
      "à¤®à¤¨à¤¦": 2647,
      "Ġ1948": 2648,
      "à¤ļà¤µà¤°": 2649,
      "à¤ªà¤°à¤ķ": 2650,
      "Ġ(&": 2651,
      "Ġà¤Ľà¤¡": 2652,
      "29": 2653,
      "35": 2654,
      "Ġà¥§à¥¯à¥®": 2655,
      "ir": 2656,
      "à¥Ĥ)": 2657,
      "ard": 2658,
      "Ġà¤ħà¤·": 2659,
      "Ġà¤ĵà¤¸": 2660,
      "Ġà¤¸à¤¬à¤¬": 2661,
      "à¤ħà¤¸à¤²": 2662,
      "Ġwhat": 2663,
      "à¤§à¤®": 2664,
      "à¤ľà¤¶": 2665,
      "à¤ıà¤¡": 2666,
      "à¤ıà¤®à¤ıà¤¸": 2667,
      "Ġ1998": 2668,
      "à¥Ģà¥¤\"": 2669,
      "âĢĻâĢĻ": 2670,
      "Ġà¤¸à¤¹à¤¨à¤¶": 2671,
      "ĠURI": 2672,
      "à¤¯à¤ľà¤¨à¤ķ": 2673,
      "à¤°à¤¦à¤¸": 2674,
      "Ġà¤ļà¤²à¤ķà¤°": 2675,
      "Ġà¤¤à¤ª": 2676,
      "Ġà¤ĸà¤¨à¤¨": 2677,
      "art": 2678,
      "ĠIS": 2679,
      "Ġorg": 2680,
      "item": 2681,
      "Ġà¥§à¥Ń": 2682,
      "ĠNAME": 2683,
      "Ġà¤®à¤°à¤¤à¤¬": 2684,
      "à¤¥à¤¶": 2685,
      "à¤Īà¤¨": 2686,
      "à¤Łà¤ķà¤Ł": 2687,
      "Ġà¤µà¤§": 2688,
      "Ġà¤¦à¤£": 2689,
      "ĠCh": 2690,
      "Ġà¤®à¤ķà¤¬à¤°": 2691,
      "action": 2692,
      "45": 2693,
      "RO": 2694,
      "Ġà¤¸à¤°à¤²à¤¤": 2695,
      "Ġà¤Ĭà¤¨": 2696,
      "Ġà¤ħà¤ł": 2697,
      "à¤¶à¤Ńà¤ķ": 2698,
      "Ġà¤ħà¤Ńà¤¯": 2699,
      "our": 2700,
      "Ġà¤ªà¤Łà¤¨": 2701,
      "à¤ļà¤¯à¤¨": 2702,
      "ĠAn": 2703,
      "sthis": 2704,
      "ount": 2705,
      "Ġ1950": 2706,
      "Ġwhatsthis": 2707,
      "Ġï": 2708,
      "à¤¬à¤ļ": 2709,
      "Ġà¤¸à¤®à¤ķà¤ķ": 2710,
      "Ġj": 2711,
      "Ġà¤ľà¤¬à¤¤à¤ķ": 2712,
      "Ġà¤Ĭà¤·": 2713,
      "à¤Ĺà¤°à¤£": 2714,
      "40": 2715,
      "Ġà¤¤à¤µ": 2716,
      "Ġà¤ļà¤¹": 2717,
      "à¤°à¤«à¤²": 2718,
      "Ġà¤¹à¤²à¤ķ": 2719,
      "Ġà¤ĸà¤Ĺ": 2720,
      "eb": 2721,
      "à¤·à¤¬": 2722,
      "à¤¹à¤ľ": 2723,
      "Ġà¤¦à¤¹à¤²": 2724,
      "à¤ıà¤ª": 2725,
      "à¤Ĩà¤ĩ": 2726,
      "Ġ38": 2727,
      "Ġà¤ħà¤°à¤µ": 2728,
      "à¤§à¤ķà¤°": 2729,
      "',": 2730,
      "EN": 2731,
      "Ġà¤Ńà¤Ĺà¤¤": 2732,
      "erm": 2733,
      "Ġà¤¦à¤¸à¤µ": 2734,
      "Ġà¤ķà¤«": 2735,
      "Ġà¤ªà¤µà¤¨": 2736,
      "ĠGN": 2737,
      "à¤ªà¤¢": 2738,
      "Ġà¤«à¤ķ": 2739,
      "Ġà¤ľà¤¬à¤°à¤¦à¤¸": 2740,
      "Ġà¤ķà¤®à¤²": 2741,
      "Ġà¤²à¤ĸà¤¨à¤Ĭ": 2742,
      "à¤¬à¤Ł": 2743,
      "à¤Ŀà¤¤": 2744,
      "à¤Ĩà¤Īà¤¡": 2745,
      "Ġà¤«à¤¤": 2746,
      "ton": 2747,
      "Ġà¤ĥ": 2748,
      "Ġà¤¸à¤ĭ": 2749,
      "MAIL": 2750,
      "à¤ĥ-": 2751,
      "Ġà¤Ĳà¤²": 2752,
      "Ġà¥§à¥©": 2753,
      "à¤łà¤ķà¤°": 2754,
      "Ġ1991": 2755,
      "nc": 2756,
      "à¤ļà¤®": 2757,
      "Ġà¤īà¤¦à¤°": 2758,
      "Ġ1000": 2759,
      "à¤ıà¤¸à¤ıà¤¸": 2760,
      "ype": 2761,
      "à¤¶à¤ª": 2762,
      "Ġà¥§à¥ª": 2763,
      "75": 2764,
      "Ġà¤¹à¤ł": 2765,
      "cri": 2766,
      "Ġwww": 2767,
      "à¥ĩà¤Ĥ%": 2768,
      "à¤§à¤²": 2769,
      "Ġà¤Ńà¤£": 2770,
      "à¤Ĩà¤µà¤ľ": 2771,
      "Ġà¤ĳà¤¨": 2772,
      "ust": 2773,
      "à¤Ĥ/": 2774,
      "Ġà¤ľà¤¯à¤ª": 2775,
      "à¤°à¤¤à¤®": 2776,
      "Ġ42": 2777,
      "à¤łà¤°": 2778,
      "à¤¨à¤¤à¤°": 2779,
      "Ġà¤µà¤«": 2780,
      "Ġà¤Ĩà¤¸à¤¨": 2781,
      "ĠConstellation": 2782,
      "enericName": 2783,
      "eg": 2784,
      "à¤°à¤¶à¤¸": 2785,
      "tic": 2786,
      "¿½": 2787,
      "à¤Ĩà¤Īà¤ıà¤¸": 2788,
      "EA": 2789,
      "IT": 2790,
      "Ġon": 2791,
      "à¤ĩà¤¨à¤¸": 2792,
      "color": 2793,
      "à¤Īà¤ª": 2794,
      "Ġà¤ªà¤¡à¤¤": 2795,
      "dition": 2796,
      "2000": 2797,
      "Ġà¤¡à¤ķ": 2798,
      "à¤ħà¤«": 2799,
      "Ġà¤ĵà¤®": 2800,
      "Ġà¤Ķà¤ļ": 2801,
      "à¥Īà¤Ĥà¥¤\"": 2802,
      "à¤ĺà¤²": 2803,
      "à¤¸à¤ĺ": 2804,
      "à¥ĥ.": 2805,
      "Ġ43": 2806,
      "à¤§à¤¡": 2807,
      "à¤·à¤ľà¤¨à¤ķ": 2808,
      "à¤ķà¤°à¤¨": 2809,
      "Ġà¤¸à¤¦à¤ķ": 2810,
      "Ġà¤¬à¤²à¤°": 2811,
      "Ġ65": 2812,
      "Ġà¤¨à¤Ĺà¤°à¤ª": 2813,
      "Ġà¤¦à¤¨": 2814,
      "Ġà¤§à¤®à¤¨": 2815,
      "à¥ĭ%": 2816,
      "Ġà¤¬à¤¦à¤¨": 2817,
      "ĠBAR": 2818,
      "31": 2819,
      "Ġà¤ľà¤ķà¤¡": 2820,
      "aol": 2821,
      "Ġraviratlami": 2822,
      "Ġà¤īà¤Ľ": 2823,
      "Ġà¤²à¤¯": 2824,
      "Ġà¤īà¤¤à¤°à¤¤": 2825,
      "à¤¸à¤®à¤°": 2826,
      "à¥Ĥà¤Ĥ.": 2827,
      "Ġà¤Ĩà¤ĩà¤ı": 2828,
      "ID": 2829,
      "Ġà¤ħà¤¹à¤¸": 2830,
      "Ġà¤²à¤¸": 2831,
      "Ġà¤ħà¤Ľ": 2832,
      "à¤Īà¤ķ": 2833,
      "Ġà¤ħà¤§à¤°": 2834,
      "Ġà¤ķà¤²à¤®": 2835,
      "Ġà¤¨à¤µà¤ľ": 2836,
      "ore": 2837,
      "Ġ,": 2838,
      "à¤Ĩà¤ı": 2839,
      "Ġà¤¸à¤īà¤¦": 2840,
      "Ġà¤¬à¤°à¤¹à¤ķ": 2841,
      "à¤ĩà¤ı": 2842,
      "ser": 2843,
      "à¤¨à¤«": 2844,
      "MS": 2845,
      "Ġà¤®à¤µ": 2846,
      "rance": 2847,
      "ĠLD": 2848,
      "ecast": 2849,
      "Ġforecast": 2850,
      "à¤Ĥ-": 2851,
      "à¤¶à¤ľ": 2852,
      "à¤Ĩà¤¦à¤®": 2853,
      "à¤¾),": 2854,
      "crip": 2855,
      "à¤ĩà¤¸à¤°": 2856,
      "jut": 2857,
      "Ġà¤°à¤®": 2858,
      "xx": 2859,
      "à¤¹à¤ª": 2860,
      "Ġà¤¶à¤¨": 2861,
      "Ġà¤īà¤ªà¤µ": 2862,
      "à¤£à¤°": 2863,
      "à¤«à¤¨": 2864,
      "à¤ĩà¤µà¤°": 2865,
      "Ġ1997": 2866,
      "à¤¹à¤¡": 2867,
      "Ġà¤µà¤¬": 2868,
      "Ġà¤ĸà¤Ł": 2869,
      "36": 2870,
      "Ġ47": 2871,
      "ĠGoogle": 2872,
      "à¤¸à¤Ĺà¤¢": 2873,
      "Ġà¤ªà¤¥à¤°": 2874,
      "Ġà¤¬à¤°à¤ķ": 2875,
      "Ġà¤Ĳà¤¨": 2876,
      "à¤¸à¤®à¤¨": 2877,
      "juta": 2878,
      "gnome": 2879,
      "Ġ...": 2880,
      "à¤²à¤¶": 2881,
      "Ġà¤¤à¤¡": 2882,
      "Ġà¤°à¤¥": 2883,
      "à¤Ĩà¤µ": 2884,
      "Ġà¥¯": 2885,
      "hould": 2886,
      "à¤¯à¤°à¤¸": 2887,
      "à¤ģ?": 2888,
      "Â¤Â¥": 2889,
      "Ġà¤ĳà¤¬": 2890,
      "Ġ1987": 2891,
      ")-": 2892,
      "ck": 2893,
      "ug": 2894,
      "à¤¾à¥°": 2895,
      "Ġà¤ħà¤µà¤¹": 2896,
      "im": 2897,
      "ry": 2898,
      "Ġà¤¨à¤Ĺ": 2899,
      "Ġà¤Ĺà¤§": 2900,
      "Ġà¤¸à¤®à¤¤à¤²": 2901,
      "à¤°à¤ķà¤²": 2902,
      "Ġà¤īà¤¦à¤¯": 2903,
      "Ġ55": 2904,
      "34": 2905,
      "à¤£à¤ª": 2906,
      "à¤ľà¤¨à¤¯": 2907,
      "Ġà¤ĵà¤¹": 2908,
      "à¤ıà¤¸à¤¸": 2909,
      "EMAIL": 2910,
      "à¤Ĩà¤°à¤Ĩà¤Ī": 2911,
      "à¤·à¤¯à¤µà¤¸": 2912,
      "ĠAnjuta": 2913,
      "ject": 2914,
      "à¤¿%": 2915,
      "à¤²à¤ªà¤¤": 2916,
      "Ġà¤¡à¤°à¤¨": 2917,
      "Ġ39": 2918,
      "Ġà¤ĳà¤«à¤²": 2919,
      "80": 2920,
      "Ġà¤Ĳà¤ķ": 2921,
      "à¤Ĩà¤²": 2922,
      "Ġà¤ħà¤«à¤¸à¤°": 2923,
      "world": 2924,
      "ĠLDAP": 2925,
      "Ġà¤ĩà¤Łà¤²": 2926,
      "Ġ1996": 2927,
      "Ġcondition": 2928,
      "hort": 2929,
      "Ġz": 2930,
      "Ġà¤ķà¤°à¤£": 2931,
      "à¤µà¤¡": 2932,
      "à¤ĩà¤¤": 2933,
      "33": 2934,
      "har": 2935,
      "Ġan": 2936,
      "Ġà¤Ĩà¤°à¤ľ": 2937,
      "Ġà¤ļà¤®à¤ķà¤¤": 2938,
      "rica": 2939,
      "CT": 2940,
      "à¤¾à¤¿": 2941,
      "à¤Ĺà¤®à¤Ĺ": 2942,
      "Ġà¥¨à¥«": 2943,
      "Ġ186": 2944,
      "Ġà¥§à¥¯à¥Ń": 2945,
      "NAME": 2946,
      "Ġà¤ªà¤°à¤²": 2947,
      "Â¤ÂĪ": 2948,
      "Ġà¤¸à¤«à¤°": 2949,
      "à¥Ģ\"": 2950,
      "Ġà¤ľà¤¹à¤°": 2951,
      "Ġà¤Ĩà¤Īà¤ıà¤¸": 2952,
      ");": 2953,
      "ge": 2954,
      "à¤¯à¤®à¤¯": 2955,
      "Ġà¤Ŀà¤²à¤ķ": 2956,
      "iss": 2957,
      "Ġà¤§à¤¬": 2958,
      "Ġ1980": 2959,
      "ahoo": 2960,
      "100": 2961,
      "IME": 2962,
      "à¤Ĥ)": 2963,
      "Ġà¤µà¤°à¤¦": 2964,
      "Ġà¤ĵà¤ľ": 2965,
      "Ġà¤ħà¤ªà¤¡": 2966,
      "ong": 2967,
      "Ġà¤ĳà¤ª": 2968,
      "à¤®à¤¬": 2969,
      "Ġà¤®à¤ł": 2970,
      "Ġà¤īà¤ķà¤¸": 2971,
      "Ġà¤ħà¤µà¤®": 2972,
      "à¤ĳà¤«": 2973,
      "Ġ08": 2974,
      "à¥Īà¤Ĥ!": 2975,
      "able": 2976,
      "ai": 2977,
      "Ġà¤ıà¤Ĺ": 2978,
      "ak": 2979,
      "Ġ1993": 2980,
      "der": 2981,
      "Ġà¤¤à¤ªà¤¸": 2982,
      "Ġà¤°à¤£": 2983,
      "Ġà¤Īà¤ķ": 2984,
      "à¤ıà¤¸à¤ıà¤²": 2985,
      "500": 2986,
      "à¤¶à¤Ĺ": 2987,
      "Ġà¤¥à¤°": 2988,
      "time": 2989,
      "Ġà¤ıà¤¨à¤Ĩà¤Ī": 2990,
      "ense": 2991,
      "Ġà¤ķà¤¸à¤®": 2992,
      "Ġà¤Ĩà¤Ł": 2993,
      "Ġà¤ĸà¤¦": 2994,
      "à¤¹à¤°à¤Ĺ": 2995,
      "ĠPOP": 2996,
      "Ġà¤¤à¤²à¤¬": 2997,
      "Ġ(\"": 2998,
      "Ġà¤ĺà¤Łà¤¤": 2999,
      "Ġà¤¬à¤¢à¤¤": 3000,
      "Ġ245": 3001,
      "ber": 3002,
      "à¤¾à¥Ģ": 3003,
      "à¤¬à¤®": 3004,
      "à¤ıà¤ĵ": 3005,
      "à¤Ĩà¤¸à¤®": 3006,
      "à¤ĸà¤µ": 3007,
      "Ġà¤ıà¤®à¤ıà¤¸à¤ıà¤®à¤Ī": 3008,
      "Ġà¤¤à¤²à¤µ": 3009,
      "Ġà¤īà¤ªà¤Ĺà¤¤": 3010,
      "Ġ1990": 3011,
      "38": 3012,
      "IC": 3013,
      "con": 3014,
      "ep": 3015,
      "à¤¹à¤ľà¤¹": 3016,
      "ĠCO": 3017,
      "Ġ)": 3018,
      "à¤ķà¤Ĺ": 3019,
      "Ġà¤¸à¤Ĺ": 3020,
      "EX": 3021,
      "Ġà¤¯à¤¨": 3022,
      "à¤Īà¤µ": 3023,
      "à¤ĺà¤µ": 3024,
      "Ġ1957": 3025,
      "Ġà¤ıà¤ļà¤Ł": 3026,
      "ock": 3027,
      "à¤¸à¤ĭ": 3028,
      "Ġà¤Ĩà¤Ĺà¤®": 3029,
      "Ġ49": 3030,
      "Ġà¥§à¥¯": 3031,
      "à¤ªà¤ħà¤ª": 3032,
      "Ġà¤ħà¤¨à¤§": 3033,
      "av": 3034,
      "ue": 3035,
      "à¤¬à¤µà¤¤": 3036,
      "Ġ54": 3037,
      "Ġï¿½": 3038,
      "2011": 3039,
      "Ġà¤¦à¤¹à¤ķà¤¤": 3040,
      "Ġtranslate": 3041,
      "rome": 3042,
      "à¤¡à¤ĭ": 3043,
      "à¤ĥ,": 3044,
      "ary": 3045,
      "ound": 3046,
      "aoM": 3047,
      "KC": 3048,
      "iz": 3049,
      "à¤²à¤ĸ": 3050,
      "Ġà¤ľà¤®à¤¨": 3051,
      "Ġà¤Ńà¤¦": 3052,
      "à¤īà¤£": 3053,
      "one": 3054,
      "à¤ĭà¤¤": 3055,
      "hel": 3056,
      "à¤ªà¤¸à¤¨": 3057,
      "à¤ļà¤¸": 3058,
      "ublic": 3059,
      "ĠIMAP": 3060,
      "Ġà¤Ĩà¤ī": 3061,
      "ite": 3062,
      "icense": 3063,
      "Ġ*.": 3064,
      "à¤¬à¤¤à¤¦": 3065,
      "Ġ`%": 3066,
      "Ġà¤Łà¤²": 3067,
      "à¤¾)à¥¤": 3068,
      "859": 3069,
      "Ġà¤¶à¤µ": 3070,
      "à¥Ģà¤Ĥà¥¤\"": 3071,
      "Ġà¥§à¥§": 3072,
      "Ġ1995": 3073,
      "Ġà¥¨à¥¦à¥¦à¥®": 3074,
      "à¤¤à¤®à¤ķ": 3075,
      "à¤¯à¤µà¤¶": 3076,
      "Ġà¤łà¤¨": 3077,
      "ip": 3078,
      "à¤¾âĢĿ": 3079,
      "Ġà¤¸à¤ĺà¤¨": 3080,
      "à¤ķà¤Łà¤¤": 3081,
      "à¤ķà¤Łà¤µà¤°": 3082,
      "Ġ56": 3083,
      "Ġ1986": 3084,
      "à¤ªà¤°à¤¤": 3085,
      "Ġà¤§à¤®": 3086,
      "Ġà¤ĸà¤°à¤Ĺ": 3087,
      "Ġà¥¦à¥¦à¥¦": 3088,
      "if": 3089,
      "Â¤Â£": 3090,
      "à¤°à¤ļà¤²à¤¨": 3091,
      "à¤¾à¥ĩ": 3092,
      "à¤®à¤ĸ": 3093,
      "Ġ46": 3094,
      "est": 3095,
      "ION": 3096,
      "à¤¾à¤¼": 3097,
      "à¤®à¤¡": 3098,
      "Ġà¤®à¤¯": 3099,
      "à¤ĩà¤¸à¤®": 3100,
      "à¤¼à¥ĩà¤Ĥ...": 3101,
      "Ġà¤īà¤¤à¤°à¤¨": 3102,
      "ode": 3103,
      "à¤®à¤¦à¤°": 3104,
      "Â¤Â§": 3105,
      "Ġà¤Ńà¤¯à¤Ń": 3106,
      "EL": 3107,
      "SA": 3108,
      "Ġà¤ªà¤¹à¤¨à¤¤": 3109,
      "Ġà¤ĺà¤¨à¤¤": 3110,
      "99": 3111,
      "na": 3112,
      "Ġà¤ļà¤¬": 3113,
      "Ġ2018": 3114,
      "Ġ1988": 3115,
      "Ġà¥©à¥¦": 3116,
      "}'": 3117,
      "à¤¿:": 3118,
      "à¥ī)": 3119,
      "%)": 3120,
      "à¤Ŀà¤²": 3121,
      "Ġà¤ªà¤²à¤Łà¤¨": 3122,
      "Ġ1971": 3123,
      "Ġà¤ıà¤ļà¤ª": 3124,
      "......": 3125,
      "?\"": 3126,
      "Ġà¤ħà¤ľà¤¨": 3127,
      "à¤¼à¥ĭ,": 3128,
      "Ġshould": 3129,
      "Ġà¤¹à¤Łà¤¨": 3130,
      "Ġà¤¤à¤«": 3131,
      "Ġà¤Ĩà¤®à¤¨": 3132,
      "Ġà¤Ĩà¤²à¤®": 3133,
      "à¤īà¤¸à¤¸": 3134,
      "Ġ--": 3135,
      ".%": 3136,
      "GenericName": 3137,
      "à¤Ĩà¤°à¤¸": 3138,
      "tive": 3139,
      "ink": 3140,
      "à¤¡à¤Ĺ": 3141,
      "à¤ĵà¤¸": 3142,
      "Ġà¤Ĳà¤¬": 3143,
      "à¤°à¤®à¤¤": 3144,
      "API": 3145,
      "Ġà¤¬à¤°à¤ķà¤¤à¤µ": 3146,
      "vii": 3147,
      "à¤Īà¤¦": 3148,
      "Ġà¤ªà¤¹à¤°": 3149,
      "Ġà¤¸à¤¬à¤¨": 3150,
      "à¤īà¤¸à¤¨": 3151,
      "Ġà¤ľà¤¨à¤Ĺà¤£à¤¨": 3152,
      "à¤ıà¤¸à¤Ł": 3153,
      "à¤ĩà¤ķà¤²": 3154,
      "à¤µà¤¨à¤ķ": 3155,
      "à¤¦à¤®à¤¯": 3156,
      "Ġ64": 3157,
      "à¤Ĩà¤°à¤¡": 3158,
      "Ġà¤ıà¤¨à¤Ĩà¤Īà¤ĵà¤ıà¤¸": 3159,
      "ES": 3160,
      "ure": 3161,
      "à¤°à¤ªà¤Ł": 3162,
      "à¤¼à¥ĭà¥¤": 3163,
      "ĠCD": 3164,
      "Ġà¤¸à¤¡à¤ķ": 3165,
      "à¥ĩ:": 3166,
      "Ġà¤ķà¤Ľ": 3167,
      "à¤°à¤¦à¤¨": 3168,
      "Ġà¤ħà¤ļà¤²": 3169,
      "Ġ51": 3170,
      "ovin": 3171,
      "unit": 3172,
      "Ġï¿½\\": 3173,
      "OS": 3174,
      "à¤¾à¤Ĥà¥¤": 3175,
      "à¤Ĩà¤¦": 3176,
      "ĠLicense": 3177,
      "france": 3178,
      "à¤ĩà¤²à¤¨": 3179,
      "à¤¬à¤¦à¤²": 3180,
      "à¤¤à¤¬à¤²": 3181,
      "à¤¥à¤ª": 3182,
      "Ġà¤Ĳà¤¶": 3183,
      "Ġà¤¬à¤¦à¤¤à¤°": 3184,
      "à¤ıà¤¸à¤Ĩà¤Ī": 3185,
      "à¤ĩà¤¸à¤¸": 3186,
      "Ġ1970": 3187,
      "ide": 3188,
      "à¤¤à¤¸à¤°": 3189,
      "à¥ĭà¤ĥ": 3190,
      "à¤ªà¤²à¤¬": 3191,
      "à¤ľà¤¬à¤°": 3192,
      "à¤¶à¤¹à¤°": 3193,
      "Ġà¤ĩà¤¬à¤²": 3194,
      "Ġà¤īà¤ªà¤®": 3195,
      "Ġà¤¸à¤°à¤Ĺ": 3196,
      "Ġà¤Ŀà¤Łà¤ķ": 3197,
      "Ġà¤¬à¤¦à¤²à¤ķà¤°": 3198,
      "indows": 3199,
      "à¤ĩà¤ľà¤°": 3200,
      "Ġà¤¤à¤°à¤ľ": 3201,
      "Ġà¤µà¤ļà¤¨à¤¬à¤¦": 3202,
      "37": 3203,
      "à¤ļà¤¡": 3204,
      "Ġà¤²à¤¡à¤ķ": 3205,
      "Ġà¥¨à¥¨": 3206,
      "à¥ĭ!\"": 3207,
      "oft": 3208,
      "2007": 3209,
      "Ġà¤²à¤¶à¤ķà¤°": 3210,
      "Ġà¤¨à¤«à¤°à¤¤": 3211,
      "à¤¤à¤ĸ": 3212,
      "à¤Ĺà¤¹": 3213,
      "à¥Ģà¤Ĥ!": 3214,
      "out": 3215,
      "Ġ1974": 3216,
      "Ġ1976": 3217,
      "Ġà¤ħà¤¸à¤¹à¤®à¤¤": 3218,
      "gt": 3219,
      "Ġà¤¯à¤ķà¤¤": 3220,
      "à¤ĸà¤ĸ": 3221,
      "Ġà¤ħà¤ªà¤µà¤°": 3222,
      "à¤¶à¤ķà¤¶": 3223,
      "à¥Ī!\"": 3224,
      "mat": 3225,
      "à¤°à¤¤à¤µ": 3226,
      "à¤ĭà¤°": 3227,
      "issions": 3228,
      "8859": 3229,
      "âĢľ": 3230,
      "Â¤Âī": 3231,
      "Ġà¤¸à¤®à¤Ŀà¤ķà¤°": 3232,
      "here": 3233,
      "à¥§à¥®": 3234,
      "Ġà¤¬à¤°à¤¤à¤¨": 3235,
      "32": 3236,
      "rou": 3237,
      "Ġ\\": 3238,
      "à¤¸à¤¡": 3239,
      "Ġà¤ıà¤Łà¤²": 3240,
      "Ġ400": 3241,
      "à¤§à¤ªà¤¤": 3242,
      "Ġà¤Ĺà¤ªà¤¶": 3243,
      "à¤Ńà¤µà¤¨": 3244,
      "Ġ1946": 3245,
      "à¥§à¥¦": 3246,
      "--------": 3247,
      "EAD": 3248,
      "Ġà¤Ĺà¤ªà¤¶à¤ª": 3249,
      "59": 3250,
      "à¥¥": 3251,
      "à¤ıà¤¦": 3252,
      "à¤·à¤ĭ": 3253,
      "à¤ĸà¤Ł": 3254,
      "à¤¼à¤¾.": 3255,
      "int": 3256,
      "Ġex": 3257,
      "Ġ1930": 3258,
      "istan": 3259,
      "à¤°à¤ķà¤°à¤£": 3260,
      "à¤Īà¤¡": 3261,
      "Ġà¤«à¤²à¤¨": 3262,
      "à¤µà¤¤à¤®": 3263,
      "Ġ'{": 3264,
      "lay": 3265,
      "DU": 3266,
      "de": 3267,
      "Ġà¤¨à¤ª": 3268,
      "à¤ĸà¤¨à¤¨": 3269,
      "Ġà¤ıà¤ķà¤¸": 3270,
      "escrip": 3271,
      "à¥ĭ/": 3272,
      "Ġà¤ªà¤Ľà¤¤": 3273,
      "Ġà¤²à¤Ł": 3274,
      "Ġà¤ıà¤¬": 3275,
      "à¤īà¤°": 3276,
      "Ġ1989": 3277,
      "ake": 3278,
      "à¤¥à¤Ĺà¤¨": 3279,
      "Ġà¤ĵà¤ķ": 3280,
      "à¥Īà¤ĥ-": 3281,
      "Ġ1951": 3282,
      "à¤ľà¤ķà¤¤": 3283,
      "à¤§à¤°à¤¤": 3284,
      "Ġà¤ıà¤ķà¤°": 3285,
      "à¥Ĥà¤Ĥ?": 3286,
      "Ġà¤¬à¤¤à¤²": 3287,
      "à¤Ĩà¤Īà¤ª": 3288,
      "lex": 3289,
      "ĠMAPI": 3290,
      "ĠHEAD": 3291,
      "ĠChrome": 3292,
      "IP": 3293,
      "à¤®à¤ļà¤°": 3294,
      "Ġà¤Ĩà¤Ĭ": 3295,
      "Ġà¤ĺà¤¸": 3296,
      "Ġà¤ļà¤²à¤ļ": 3297,
      "Ġà¤īà¤²à¤Ŀà¤¨": 3298,
      "Í¾": 3299,
      "Ġà¤¡à¤¬à¤²": 3300,
      "à¤·à¤¯à¤£": 3301,
      "2017": 3302,
      "Ġev": 3303,
      "à¥ĩà¤Ĥ/": 3304,
      "Ġà¤ħà¤°à¤¸": 3305,
      "à¤ľà¤°à¤¨": 3306,
      "à¤Ńà¤¤": 3307,
      "Ġà¤ıà¤¡à¤µ": 3308,
      "Ġà¤Ĩà¤µà¤§": 3309,
      "à¤¤à¤°à¤«à¤²à¤ķ": 3310,
      "à¤ĺà¤Łà¤ķ": 3311,
      "à¥Ī)à¥¤": 3312,
      "PRO": 3313,
      "à¤°à¤Ł": 3314,
      "à¤łà¤®": 3315,
      "à¤¹à¤°à¤ħà¤²": 3316,
      "escription": 3317,
      "Short": 3318,
      "ution": 3319,
      "à¥ģà¥¤": 3320,
      "Ġà¤īà¤łà¤ķà¤°": 3321,
      "à¤ıà¤®à¤ª": 3322,
      "Ġà¤ªà¤²à¤Łà¤ķà¤°": 3323,
      "Ġà¤Ĥ": 3324,
      "à¤¼à¤¼à¥ģ": 3325,
      "ice": 3326,
      "Ġ120": 3327,
      "à¤ĳà¤ķ": 3328,
      "ix": 3329,
      "à¤Ľà¤°": 3330,
      "Ġà¤ħà¤µà¤¤à¤°à¤£": 3331,
      "Ġ250": 3332,
      "Ġà¤Ńà¤Łà¤ķà¤¤": 3333,
      "mb": 3334,
      "à¥Ģ%": 3335,
      "à¤¤à¤¥": 3336,
      "à¤ıà¤ľ": 3337,
      "à¤Ľà¤µ": 3338,
      "Ġà¤ħà¤²à¤®à¤¸": 3339,
      "âĢĿ,": 3340,
      "Ġà¤Ĩà¤«à¤¤": 3341,
      "Ġà¤Ĩà¤īà¤Łà¤²": 3342,
      "ps": 3343,
      "à¤®à¤µà¤°": 3344,
      "à¤®à¤¹à¤¤": 3345,
      "à¤ıà¤¶": 3346,
      "Ġà¤ªà¤°à¤ĸ": 3347,
      "Ġà¤¶à¤¯": 3348,
      "Ġà¤ħà¤¨à¤Ń": 3349,
      "ant": 3350,
      "all": 3351,
      "à¤·à¤¤à¤¯": 3352,
      "ateg": 3353,
      "ult": 3354,
      "48": 3355,
      "Serv": 3356,
      "Ġà¤®à¤ķà¤°": 3357,
      "eneral": 3358,
      "ĠÂ·": 3359,
      "ace": 3360,
      "à¤¹à¤®à¤¤": 3361,
      "Ġà¤Ķà¤ªà¤¨": 3362,
      "à¤·à¤¨": 3363,
      "à¤¨à¤¤à¤¦": 3364,
      "Ġà¤ĵà¤Ł": 3365,
      "à¥Ĥà¤ģ)": 3366,
      "ĠSSL": 3367,
      "Ġà¤Ńà¤µà¤Ń": 3368,
      "à¤ıà¤¨à¤ı": 3369,
      "Ġtranslated": 3370,
      "à¤Ĺà¤¯": 3371,
      "à¤ķà¤°EMAIL": 3372,
      "à¤īà¤¥": 3373,
      "Ġà¤ħà¤ªà¤ķ": 3374,
      "à¤Ĳà¤¬": 3375,
      "à¤Ńà¤µà¤¤à¤¯": 3376,
      "55": 3377,
      "à¤¬à¤²à¤¤": 3378,
      "Ġas": 3379,
      "ital": 3380,
      "ear": 3381,
      "Ġà¤¨à¤µà¤¯": 3382,
      "Ġà¤¬à¤°à¤«": 3383,
      "à¥¨à¥¦à¥¦": 3384,
      "70": 3385,
      "96": 3386,
      "OL": 3387,
      "Ġà¤īà¤®à¤°": 3388,
      "Ġà¤¥à¤²": 3389,
      "à¤°à¤ķà¤Łà¤¨": 3390,
      "à¤ıà¤¸à¤¡": 3391,
      "ĠIn": 3392,
      "Ġ1972": 3393,
      "Lex": 3394,
      "Ġà¤Ĩà¤ĩà¤Ł": 3395,
      "à¤Ńà¤¯": 3396,
      "à¤¤à¤¨à¤¶": 3397,
      "Ġà¤ķà¤¸à¤°à¤¤": 3398,
      "UT": 3399,
      "Ġà¤°à¤®à¤£": 3400,
      "à¤ķà¤²à¤ķà¤°": 3401,
      "Ġ1952": 3402,
      "kt": 3403,
      "ror": 3404,
      "à¤²à¤®à¤¨": 3405,
      "à¤ªà¤°à¤®": 3406,
      "Ġà¤ħà¤ĺ": 3407,
      "à¤ĵà¤ª": 3408,
      "Ġà¤¸à¤¬à¤µà¤°": 3409,
      "Ġli": 3410,
      "à¤ªà¤ķà¤¨": 3411,
      "à¤ıà¤¨à¤¸": 3412,
      "à¤¤à¤°à¤«": 3413,
      "Â¤ÂĽ": 3414,
      "à¤ħà¤Ĺ": 3415,
      "à¤®à¤ķà¤¥": 3416,
      "Ġ66": 3417,
      "Ġà¤ķà¤¯": 3418,
      "à¤¸City": 3419,
      "à¤¼à¥°": 3420,
      "à¤ľà¤ķà¤°": 3421,
      "à¤¥à¤¸": 3422,
      "à¤¥à¤¡": 3423,
      "à¤ģà¤ĥ": 3424,
      "Ġà¤ªà¤¹à¤¨à¤¨": 3425,
      "Ġà¤ĺà¤£": 3426,
      "à¤īà¤®": 3427,
      "Ġà¤Ĩà¤ķà¤¡": 3428,
      "Ġ72": 3429,
      "Ġ1949": 3430,
      "Ġà¥¨à¥¦à¥¦à¥Ń": 3431,
      "Uri": 3432,
      "à¤¨à¤ı": 3433,
      "à¤¨à¤¹à¤°": 3434,
      "Ġà¤¹à¤¸à¤¨": 3435,
      "Ġà¤¶à¤®": 3436,
      "à¤°à¤®à¤ķ": 3437,
      "à¤ĺà¤¡": 3438,
      "Ġà¤ĳà¤²": 3439,
      "ith": 3440,
      "à¤Łà¤²à¤°": 3441,
      "ill": 3442,
      "rib": 3443,
      "1956": 3444,
      "DUCT": 3445,
      "LexUri": 3446,
      "LexUriServ": 3447,
      "ha": 3448,
      "à¤ļà¤²à¤¤": 3449,
      "à¤°à¤µà¤¤": 3450,
      "Ġà¤ħà¤ķà¤¸à¤°": 3451,
      "Ġà¤¤à¤¬à¤ķ": 3452,
      "Ġ41": 3453,
      "Ġ85": 3454,
      "à¤Łà¤¤à¤®": 3455,
      "Ġ52": 3456,
      "Ġ09": 3457,
      "Ġ1960": 3458,
      "VD": 3459,
      "uer": 3460,
      "à¥ĩ...": 3461,
      "à¤¨City": 3462,
      "Ġà¤ĩà¤¦": 3463,
      "à¤¾à¤Ĥ-": 3464,
      "Ġà¤¬à¤²à¤µ": 3465,
      "à¤¯à¤¸à¤Ń": 3466,
      "à¤ıà¤°": 3467,
      "à¤ĩà¤¡à¤°": 3468,
      "Ġà¤Ľà¤¨": 3469,
      "à¤ħà¤¦": 3470,
      "à¤ĩà¤¨à¤²": 3471,
      "à¤ĭà¤£": 3472,
      "Ġà¤Ķà¤¸": 3473,
      "Ġà¤°à¤ĺ": 3474,
      "Ġuse": 3475,
      "to": 3476,
      "ĠĠ": 3477,
      "à¤°à¤£à¤¤à¤¯": 3478,
      "Ġ\\\\": 3479,
      "Ġà¤®à¤¦à¤¨": 3480,
      "Ġà¤®à¤ķà¤¸": 3481,
      "Ġà¤¬à¤«à¤°": 3482,
      "Ġà¤ħà¤¨à¤¸": 3483,
      "à¤ĩà¤¨à¤ķ": 3484,
      "à¤¯à¤µà¤§": 3485,
      "Ġà¥¯à¥": 3486,
      "Ġà¤¦à¤°à¤ħà¤¸à¤²": 3487,
      "à¤ķà¤Łà¤¤à¤®": 3488,
      "Ġgnome": 3489,
      "ĠYou": 3490,
      "ĠHTTP": 3491,
      "ĠGNU": 3492,
      "à¥ģ)": 3493,
      "à¤°à¤®à¤°": 3494,
      "Ġ03": 3495,
      "Ġ1994": 3496,
      "à¤¸à¤¬à¤¸": 3497,
      "Ġà¤¹à¤¬": 3498,
      "à¤Ĺà¤ĩà¤¨": 3499,
      "à¤¬à¤ľ": 3500,
      "Ġà¤°à¤¶": 3501,
      "Ġà¤¸à¤®à¤ľ": 3502,
      "Ġà¤Ĩà¤Ĺà¤µ": 3503,
      "Ġà¥§à¥¯à¥©": 3504,
      "Ġ1985": 3505,
      "Ġà¤ħà¤ľà¤¨à¤¬": 3506,
      "ategory": 3507,
      "86": 3508,
      "UR": 3509,
      "cc": 3510,
      "Ġle": 3511,
      "Ġà¤ľà¤¸": 3512,
      "âĢ¦": 3513,
      "à¤Ĺà¤¤à¤¤": 3514,
      "Ġà¤ħà¤ªà¤¹à¤°à¤£": 3515,
      "Ġ74": 3516,
      "urop": 3517,
      "INK": 3518,
      "à¤Łà¤Ł": 3519,
      "Ġà¤īà¤¨à¤¹": 3520,
      "à¤ĩà¤ªà¤°": 3521,
      "à¤²à¤¤à¤®": 3522,
      "Ġà¥¨à¥¦à¥¦à¥¬": 3523,
      "à¤§à¤¨à¤¤": 3524,
      "Ġà¤Ĺà¤°à¤¦à¤¨": 3525,
      "Ġà¤ªà¤°à¤¶": 3526,
      "Ġà¤Łà¤Ł": 3527,
      "Ġà¤īà¤ļà¤ķ": 3528,
      "Ġà¤īà¤²à¤«": 3529,
      "Ġ1973": 3530,
      "ceiv": 3531,
      "ET": 3532,
      "tor": 3533,
      "à¤¹à¤«": 3534,
      "Ġà¤ľà¤¨à¤¶à¤ķ": 3535,
      "Ġ139": 3536,
      "à¥Ģ?\"": 3537,
      "roup": 3538,
      "77": 3539,
      "à¤¤à¤§": 3540,
      "Ġà¤®à¤Ł": 3541,
      "à¤Ĺà¤«à¤²": 3542,
      "Ġà¤¤à¤«à¤¸": 3543,
      "à¥Īà¤Ĥ...": 3544,
      "ermissions": 3545,
      "ghan": 3546,
      "à¤¿\"": 3547,
      "à¤ķà¤¯": 3548,
      "à¤Ĺà¤Ĺ": 3549,
      "à¤ģà¥¤\"": 3550,
      "Ġà¤ħà¤¨à¤°": 3551,
      "menu": 3552,
      "til": 3553,
      "à¤¾!\"": 3554,
      "1947": 3555,
      "à¥į)": 3556,
      "à¤ķà¤°à¤ĺ": 3557,
      "à¤ĩà¤¦": 3558,
      "ĠSt": 3559,
      "Ġà¥§à¥¯à¥ª": 3560,
      "istbox": 3561,
      "Ġà¤Ńà¤Ĺà¤µà¤¤": 3562,
      "Ġà¤Ĩà¤Īà¤ıà¤¸à¤ĵ": 3563,
      "SION": 3564,
      "ey": 3565,
      "ma": 3566,
      "Ġà¤ħà¤¹à¤¦": 3567,
      "Ġà¤ļà¤ª": 3568,
      "Ġà¤ħà¤¨à¤Ĺ": 3569,
      "à¤µà¤²à¤ªà¤°": 3570,
      "Ġà¤ľà¤¨à¤®à¤¤": 3571,
      "key": 3572,
      "à¤¹à¤Łà¤ķà¤°": 3573,
      "Ġà¤ħà¤¸à¤¨": 3574,
      "à¤ıà¤®à¤¸": 3575,
      "à¤ıà¤Ĩà¤°": 3576,
      "à¤¥à¤¯": 3577,
      "Ġà¤Ńà¤°à¤£": 3578,
      "Ġà¤ļà¤¹à¤°": 3579,
      "à¤°à¤¦à¤¯": 3580,
      "Ġà¤ħà¤µà¤Ĺ": 3581,
      "Ġà¤Ŀà¤Ł": 3582,
      "Ġà¥¨à¥¬": 3583,
      "ghanistan": 3584,
      "ction": 3585,
      "Ġ.": 3586,
      "Ġà¤ĩà¤®à¤°": 3587,
      "Ġà¤ħà¤²à¤µ": 3588,
      "à¤ħà¤µ": 3589,
      "sh": 3590,
      "ware": 3591,
      "à¥ĪâĢĿ": 3592,
      "ĠThe": 3593,
      "ĠGeneral": 3594,
      "amp": 3595,
      "lo": 3596,
      "Ġà¤ķà¤µà¤ķ": 3597,
      "à¥ĩà¤Ĥ!": 3598,
      "Ġà¤²à¤¨": 3599,
      "à¤ĸà¤²à¤¨": 3600,
      "Ġà¤ĸà¤¯": 3601,
      "à¤¯à¤¤à¤®": 3602,
      "à¤¦à¤°à¤ĸ": 3603,
      "oftware": 3604,
      "76": 3605,
      "zil": 3606,
      "Ġà¤®à¤¥": 3607,
      "à¤Īà¤¶": 3608,
      "Ġ600": 3609,
      "enef": 3610,
      "atus": 3611,
      "à¤ĸà¤®": 3612,
      "Ġ59": 3613,
      "Ġ04": 3614,
      "ath": 3615,
      "Ġà¥§à¥¦à¥¦": 3616,
      "PRODUCT": 3617,
      "à¤¿'": 3618,
      "à¤¸à¤ķà¤¤": 3619,
      "à¤µà¤¸à¤®": 3620,
      "à¤Ľà¤¦": 3621,
      "Ġ53": 3622,
      "2009": 3623,
      "enefit": 3624,
      "Ġla": 3625,
      "à¤¤à¤«": 3626,
      "à¤¸à¤Ĺ": 3627,
      "Ġà¤¶à¤¶": 3628,
      "Ġà¤¬à¤¦à¤ļà¤²à¤¨": 3629,
      "Ġ05": 3630,
      "Ġ92": 3631,
      "Ġ1965": 3632,
      "Ġ1975": 3633,
      "Ġ269": 3634,
      "lib": 3635,
      "89": 3636,
      "à¤®à¤ı": 3637,
      "Ġà¤¯à¤¶": 3638,
      "Ġà¤¶à¤¹à¤¦": 3639,
      "à¤īà¤¡": 3640,
      "à¤Ĩà¤Īà¤ı": 3641,
      "Ġà¤ļà¤®à¤ķà¤¦": 3642,
      "Ġmenu": 3643,
      "rom": 3644,
      "Ġâĺ»âĺ»": 3645,
      "à¤¤à¤ĺ": 3646,
      "Ġà¤īà¤¥à¤²": 3647,
      "à¤łà¤¶": 3648,
      "à¤¢à¤¤": 3649,
      "à¤¯à¤®à¤¶": 3650,
      "Ġà¤Īà¤¸à¤µ": 3651,
      "red": 3652,
      "\")": 3653,
      "Con": 3654,
      "ord": 3655,
      "state": 3656,
      "ĠPublic": 3657,
      "-%": 3658,
      "Count": 3659,
      "Ġà¤¿": 3660,
      "à¤¯à¤°à¤µ": 3661,
      "Ġà¤¹à¤°à¤®": 3662,
      "à¤Łà¤¡": 3663,
      "à¤Ĩà¤¬": 3664,
      "à¤°à¤®à¤¬à¤¦": 3665,
      "à¤°à¤¸à¤¤": 3666,
      "Ġà¤Ŀà¤°à¤¨": 3667,
      "Ġ58": 3668,
      "Ġ68": 3669,
      "Ġà¤®à¤¸à¤ĸ": 3670,
      "Ġmon": 3671,
      "ts": 3672,
      "Ġâ": 3673,
      "à¤ªà¤ķà¤¤": 3674,
      "Ġà¤ªà¤°à¤ķ": 3675,
      "Ġà¤ıà¤¨à¤¸": 3676,
      "à¤¤à¤°à¤µà¤°": 3677,
      "à¤īà¤§à¤°": 3678,
      "à¤¦à¤¨à¤ªà¤¤": 3679,
      "older": 3680,
      "Ġ1962": 3681,
      "Ġ1977": 3682,
      "90": 3683,
      "à¤°à¤ªà¤°": 3684,
      "à¤Ĺà¤¬": 3685,
      "à¤£à¤ķà¤Ł": 3686,
      "à¤°à¤£à¤¤": 3687,
      "Ġà¤ĵà¤ª": 3688,
      "ĠhO": 3689,
      "->": 3690,
      "à¤²à¤²": 3691,
      "Ġà¤ħà¤ľà¤®": 3692,
      "lect": 3693,
      "Ġcolor": 3694,
      "Ġà¤ıà¤¯à¤°à¤²": 3695,
      "ual": 3696,
      "Ġà¤®à¤¦à¤°": 3697,
      "à¤¬à¤Ĺà¤°": 3698,
      "Ġà¤ļà¤¯": 3699,
      "à¤¾à¥¤-": 3700,
      "Ġà¤¸à¤¬à¤®": 3701,
      "à¤¯à¤°à¤²": 3702,
      "Ġà¤ľà¤¨à¤¹": 3703,
      "ance": 3704,
      "âĢĻ,": 3705,
      "Ġà¤ķà¤µà¤ļ": 3706,
      "oll": 3707,
      "Ġà¤Ĩà¤ĩà¤Łà¤®": 3708,
      "CC": 3709,
      "Ġà¤ľà¤Ĺà¤®à¤Ĺ": 3710,
      "à¥ĩà¤Ĥ\"": 3711,
      "à¥ĭà¤Ĥ;": 3712,
      "Ġà¤ĩà¤¥": 3713,
      "Ġà¤¡à¤Ł": 3714,
      "Ġà¤ªà¤¦à¤ļ": 3715,
      "Ġ1942": 3716,
      "Ġbutton": 3717,
      "In": 3718,
      "ost": 3719,
      "à¤ķà¤Ĺà¤£": 3720,
      "Ġà¤¶à¤«": 3721,
      "Ġà¤Ĩà¤°à¤Ł": 3722,
      "ana": 3723,
      "AL": 3724,
      "Cal": 3725,
      "Ġà¤ħà¤¶à¤ķ": 3726,
      "Ġà¤ĩà¤Ł": 3727,
      "à¤¾à¤ģà¥¤": 3728,
      "Ġà¤¬à¤¢à¤¨": 3729,
      "Ġà¤ĳà¤¯à¤²": 3730,
      "Ġà¤ĳà¤«à¤¸": 3731,
      "ĠII": 3732,
      "ram": 3733,
      "Ġ${": 3734,
      "DE": 3735,
      "per": 3736,
      "à¤°à¤ľà¤¨": 3737,
      "à¤¿à¤¼": 3738,
      "Ġà¤ªà¤²à¤ķ": 3739,
      "Ġà¤®à¤ķà¤¡": 3740,
      "à¤§à¤¶": 3741,
      "Ġà¤ħà¤¨à¤µà¤°à¤¤": 3742,
      "Ġfile": 3743,
      "Ġà¤¹à¤¥à¤ķà¤°à¤ĺ": 3744,
      "Ġà¤¬à¤Łà¤£": 3745,
      "Ġà¤®à¤ķà¤¸à¤¦": 3746,
      "64": 3747,
      "Ġà¤²à¤µà¤£": 3748,
      "2002": 3749,
      "65": 3750,
      "??": 3751,
      "à¥Ī:-": 3752,
      "à¤¾à¤ģ.": 3753,
      "à¤¤à¤¨à¤®": 3754,
      "Ġà¤ªà¤¢à¤¨": 3755,
      "Ġà¤Ńà¤Łà¤ķà¤¨": 3756,
      "italy": 3757,
      "Ġà¤Ķà¤¸à¤¤à¤¨": 3758,
      "74": 3759,
      "95": 3760,
      "aj": 3761,
      "à¤¸à¤¨à¤²": 3762,
      "Ġà¤ĭà¤£à¤¦": 3763,
      "Ġà¥¨à¥ª": 3764,
      "à¤īà¤¸à¤ªà¤°": 3765,
      "Ġà¤Ĺà¤łà¤¬": 3766,
      "lock": 3767,
      "util": 3768,
      "à¥ĩ\"": 3769,
      "Ġà¤²à¤ĸ": 3770,
      "Ġà¤°à¤ªà¤Ł": 3771,
      "Ġà¤ıà¤®à¤¸": 3772,
      "à¤ģ)": 3773,
      "à¤¤à¤°à¤ľ": 3774,
      "à¤Ŀà¤®": 3775,
      "à¤¸à¤®à¤¸": 3776,
      "à¤ķà¤²à¤ķ": 3777,
      "Ġ2019": 3778,
      "Ġà¥¨à¥©": 3779,
      "à¤ıà¤¨à¤Ĩà¤°": 3780,
      "Ġ1945": 3781,
      "Ġà¥¨à¥¦à¥¦à¥«": 3782,
      "yahoo": 3783,
      "à¥Ģ...": 3784,
      "à¤ķà¤°à¤®": 3785,
      "ĠSM": 3786,
      "Ġ1984": 3787,
      ",âĢĵ": 3788,
      "dr": 3789,
      "ire": 3790,
      "ymb": 3791,
      "à¤¦à¤ķà¤°": 3792,
      "à¤ĵà¤¨": 3793,
      "Ġà¤ĵà¤¢": 3794,
      "Ġà¤ħà¤ľà¤¬": 3795,
      "2010": 3796,
      "ols": 3797,
      "Ġint": 3798,
      "à¥Īà¤Ĥà¤ĥ-": 3799,
      ")]": 3800,
      "à¤¾,)": 3801,
      "à¤Łà¤ķà¤ķ": 3802,
      "à¥ĩà¤Ĥà¥¤\"": 3803,
      "ass": 3804,
      "Ġ1857": 3805,
      "St": 3806,
      "ud": 3807,
      "à¤¤à¤Ń": 3808,
      "à¤µà¤Ńà¤°": 3809,
      "Ġà¤²à¤µ": 3810,
      "à¤Īà¤ıà¤¸": 3811,
      "Ġà¤ħà¤¨à¤®": 3812,
      "Ġà¤¤à¤°à¤¸": 3813,
      "à¤īà¤¸à¤®": 3814,
      "Ġ1908": 3815,
      "à¤µà¤²à¤°": 3816,
      "Ġà¤®à¤¦à¤¯à¤¨": 3817,
      "à¤°à¤®à¤£à¤ķ": 3818,
      "Ġà¤¤à¤Łà¤¸": 3819,
      "à¤°à¤¡": 3820,
      "Ġà¤ķà¤Łà¤ķ": 3821,
      "à¤ĵà¤°": 3822,
      "à¥Ī--": 3823,
      "Ġ1935": 3824,
      "Ġà¥«à¥¦": 3825,
      "101": 3826,
      "à¥ĩà¤¼": 3827,
      "Ġà¤¸à¤°à¤£": 3828,
      "à¤®à¤Ń": 3829,
      "Ġà¤ľà¤¯à¤¦": 3830,
      "Ġà¤Ĩà¤ĵà¤Ĺ": 3831,
      "Ġà¤®à¤¹à¤®": 3832,
      "Ġsec": 3833,
      "eeting": 3834,
      "Ġà¤Ĩà¤¯à¤¤à¤¨": 3835,
      "Ġ125": 3836,
      "Ġ1963": 3837,
      "UN": 3838,
      "Ġà¤®à¤°à¤£": 3839,
      "à¥ĩà¤Ĥ:": 3840,
      "Ġà¤¬à¤¸à¤¨": 3841,
      "à¤«à¤Ł": 3842,
      "à¤¤à¤¨à¤ª": 3843,
      "Ġ1939": 3844,
      ".,": 3845,
      "New": 3846,
      "à¤§à¤¸": 3847,
      "à¤Ŀà¤¨": 3848,
      "à¤°à¤¬à¤ĸ": 3849,
      "Ġtype": 3850,
      "help": 3851,
      "à¤¯à¤£à¤¤": 3852,
      "à¤¸à¤¬à¤°": 3853,
      "Ġà¤²à¤¬": 3854,
      "à¤ģ...": 3855,
      "Ġko": 3856,
      "ĠServ": 3857,
      "Ġ1981": 3858,
      "ack": 3859,
      "ĠISO": 3860,
      "\".": 3861,
      "à¤ķCity": 3862,
      "Ġà¤¸à¤°à¤¤": 3863,
      "Ġà¤ħà¤¥à¤ķ": 3864,
      "à¤Łà¤¯": 3865,
      "à¤¥à¤²à¤Ĺ": 3866,
      "Ġà¤īà¤¦à¤ĺ": 3867,
      "EG": 3868,
      "Ġà¤¸à¤§": 3869,
      "Ġà¤µà¤¯": 3870,
      "Ġà¤ıà¤¡à¤®": 3871,
      "Ġà¤Łà¤ķ": 3872,
      "à¤Ĭà¤°": 3873,
      "ĠâĢĺ%": 3874,
      "à¤¤à¤µà¤°": 3875,
      "à¤ªà¤ļà¤¯": 3876,
      "à¤¼à¥¤": 3877,
      "Ġà¤łà¤ª": 3878,
      "à¤¨à¤¦à¤£": 3879,
      "))": 3880,
      "Ġà¤ķà¤Ĺ": 3881,
      "à¤¯à¤¸à¤°": 3882,
      "à¤µà¤²à¤¨": 3883,
      "à¤¦à¤£": 3884,
      "à¤¶à¤Ń": 3885,
      "Ġà¤Īà¤§à¤¨": 3886,
      "Ġà¤īà¤¦à¤¯à¤ª": 3887,
      "star": 3888,
      "Ġ1978": 3889,
      "Ġcont": 3890,
      "300": 3891,
      "88": 3892,
      "Reg": 3893,
      "à¤¼.": 3894,
      "à¤¾à¤Ĥ/": 3895,
      "à¤°à¤®à¤¸": 3896,
      "à¤īà¤¡à¤°": 3897,
      "Ġà¤łà¤£": 3898,
      "Ġare": 3899,
      "Ġà¥§à¥¯à¥¬": 3900,
      "2005": 3901,
      "Ġoff": 3902,
      "ational": 3903,
      "OME": 3904,
      "Ġà¤¤à¤¹à¤¸": 3905,
      "Ġà¤ĩà¤µ": 3906,
      "à¤ľà¤¨à¤°à¤²": 3907,
      "Ġà¤°à¤ĸà¤µ": 3908,
      "Ġà¤Ŀà¤¡": 3909,
      "à¤¨à¤®à¤¯": 3910,
      "Ġà¤ļà¤°à¤ĸ": 3911,
      "ro": 3912,
      "à¤°à¤¹à¤°": 3913,
      "à¤¤à¤Ĺà¤¤": 3914,
      "à¤¾--": 3915,
      "à¤ıà¤¸à¤ª": 3916,
      "à¤Ĺà¤®à¤°à¤®à¤°": 3917,
      "heck": 3918,
      "Ġà¤īà¤Ńà¤°à¤¨": 3919,
      "tring": 3920,
      "Ġmonth": 3921,
      "67": 3922,
      "97": 3923,
      "à¤°à¤Ľ": 3924,
      "à¥Ģ''": 3925,
      "Ġà¤ħà¤µà¤¨": 3926,
      "Ġà¤«à¤«": 3927,
      "à¤µà¤°à¤¯": 3928,
      "Ġà¤¬à¤¨à¤°": 3929,
      "Ġ1920": 3930,
      "à¤µà¤²à¤ªà¤®": 3931,
      "à¤¯à¤²à¤Ł": 3932,
      "Ġà¤ľà¤Ĺà¤¦": 3933,
      "à¤Ĩà¤°à¤ıà¤¸": 3934,
      "Ġ07": 3935,
      "Ġà¤ªà¤²à¤Łà¤¤": 3936,
      "Country": 3937,
      ".-": 3938,
      "à¤¼à¥ĩà¤Ĥ.": 3939,
      "à¤ľà¤¯à¤¨": 3940,
      "Ġà¤Ĩà¤ĩà¤²": 3941,
      "à¤µà¤°à¤µ": 3942,
      "Ġà¤ĩà¤¨à¤²": 3943,
      "à¤¨à¤¤à¤µ": 3944,
      "Ġà¤¬à¤°à¤Ĺ": 3945,
      "à¤¸à¤ľà¤¦": 3946,
      "Ġà¤¬à¤°à¤¤à¤°": 3947,
      "africa": 3948,
      "Ġtime": 3949,
      "à¤Ńà¤°à¤£": 3950,
      "à¤Ĩà¤¶": 3951,
      "Â¤Âĥ": 3952,
      "Ġà¤ľà¤²à¤ª": 3953,
      "Ġ1955": 3954,
      "ĠLINK": 3955,
      "ĠEN": 3956,
      "ISO": 3957,
      "à¤¸à¤¹à¤¨": 3958,
      "Ġà¤®à¤¶à¤ķ": 3959,
      "Ġà¤¤à¤¶": 3960,
      "Ġà¤Ĩà¤ĩà¤¨": 3961,
      "Ġ(*": 3962,
      "Ġà¤ļà¤ĸà¤¨": 3963,
      "Ġà¤ħà¤¸à¤«": 3964,
      "Ġà¤°à¤¬à¤¡": 3965,
      "à¤ıà¤¸à¤¬": 3966,
      "Ġà¤®à¤¶à¤¹": 3967,
      "word": 3968,
      "47": 3969,
      "mail": 3970,
      "à¥ĩ'": 3971,
      "à¤ķà¤ĸ": 3972,
      "à¤¦à¤¡": 3973,
      "à¤Ĺà¤Ł": 3974,
      "Ġà¤¦à¤Ĺ": 3975,
      "à¤ĸà¤¬à¤°": 3976,
      "Ġà¤«à¤²à¤¤": 3977,
      "Ġà¤Łà¤¹à¤¨": 3978,
      "à¤µà¤¨à¤¸": 3979,
      "ents": 3980,
      "gui": 3981,
      "ces": 3982,
      "à¤²à¤¹à¤¨": 3983,
      "Ġà¤ªà¤®": 3984,
      "à¤Ĺà¤Ń": 3985,
      "à¤ĸà¤ª": 3986,
      "à¤µà¤°à¤ķà¤°": 3987,
      "à¤¢à¤ķ": 3988,
      "à¤īà¤ªà¤¯": 3989,
      "à¥Ī),": 3990,
      "ĠWindows": 3991,
      "mage": 3992,
      "à¤¿âĢĻ": 3993,
      "à¤¤à¤ľà¤¨": 3994,
      "à¤²à¤ķà¤¤": 3995,
      "à¤Ĺà¤®à¤°": 3996,
      "Ġà¤īà¤ªà¤®à¤¹": 3997,
      "à¤°à¤¹à¤¨": 3998,
      "à¤¤à¤ķà¤¨": 3999,
      "Ġà¤ľà¤²à¤¸": 4000,
      "Ġ:âĢĵ": 4001,
      "2008": 4002,
      "Ġun": 4003,
      "à¤®à¤¶à¤°à¤£": 4004,
      "ategoryName": 4005,
      "ian": 4006,
      "à¤ķà¤ªà¤Ł": 4007,
      "à¤®à¤«": 4008,
      "Ġà¤ħà¤¯à¤¸": 4009,
      "Ġà¤īà¤ªà¤¶": 4010,
      "Ġsa": 4011,
      "ties": 4012,
      "ĠAP": 4013,
      "125": 4014,
      "à¥Ĭà¤Ĥ": 4015,
      "42": 4016,
      "66": 4017,
      "SV": 4018,
      "Ġal": 4019,
      "à¥Ģ]": 4020,
      "à¤¯à¤¬à¤²": 4021,
      "Ġà¤®à¤Ľ": 4022,
      "à¤Īà¤ļ": 4023,
      "Ġà¤ħà¤¨à¤²": 4024,
      "ond": 4025,
      "Ġà¤®à¤ľà¤¹à¤¬": 4026,
      "esh": 4027,
      "Ġdist": 4028,
      "Ġà¥§à¥§à¥": 4029,
      "Ġ63": 4030,
      "Ġà¤¹à¤²à¤ļà¤²": 4031,
      "ĠIC": 4032,
      "Ġà¥§à¥¯à¥«": 4033,
      "Ġinl": 4034,
      "ersion": 4035,
      "98": 4036,
      "IM": 4037,
      "Ġà¤ķà¤ĭ": 4038,
      "à¥Ģà¥°": 4039,
      "à¤¯à¤ľà¤¨": 4040,
      "à¤¸à¤«à¤°": 4041,
      "à¤µà¤µà¤¤": 4042,
      "à¤Īà¤ıà¤«": 4043,
      "Ġà¤Ĳà¤°": 4044,
      "à¤īà¤¨à¤®": 4045,
      "à¤°à¤µà¤ķ": 4046,
      "à¤Łà¤¨à¤°": 4047,
      "Ġà¤ħà¤¦à¤²": 4048,
      "eek": 4049,
      "Ġ1967": 4050,
      "Ġ1921": 4051,
      "Ġitem": 4052,
      "46": 4053,
      "à¤µà¤¶à¤ķ": 4054,
      "Ġà¤¬à¤Ļ": 4055,
      "Ġà¤°à¤ľà¤¤": 4056,
      "à¤µà¤°à¤®": 4057,
      "Ġà¤Īà¤Ł": 4058,
      "ĠâĢĶ": 4059,
      "Ġ88": 4060,
      "Ġ95": 4061,
      "Ġ1931": 4062,
      "Ġinlistbox": 4063,
      "CategoryName": 4064,
      "ph": 4065,
      "sa": 4066,
      "à¤Ĺà¤®à¤¤": 4067,
      "Ġà¤®à¤¨à¤¸": 4068,
      "à¤ıà¤®à¤Ł": 4069,
      "Ġ1954": 4070,
      "usa": 4071,
      "ama": 4072,
      "ERSION": 4073,
      "Ġstatus": 4074,
      "afghanistan": 4075,
      "à¤¤à¤ķà¤²": 4076,
      "Ġà¤¤à¤ķà¤°": 4077,
      "à¥Ĥà¥¤": 4078,
      "Ġ:-": 4079,
      "2004": 4080,
      "Ġ1938": 4081,
      "Ġà¤¬à¤¹à¤°à¤¹": 4082,
      "SC": 4083,
      "com": 4084,
      "cut": 4085,
      "à¤£à¤¦": 4086,
      "Ġà¤ļà¤ªà¤Ł": 4087,
      "à¤°à¤¤à¤µà¤°": 4088,
      "à¤ĩà¤Ĺ": 4089,
      "à¤ĩà¤¸à¤²": 4090,
      "Ġà¤Ĳà¤µà¤ľ": 4091,
      "Ġà¤īà¤ªà¤¸à¤°": 4092,
      "Ġ\"-": 4093,
      "à¤Łà¤°à¤²": 4094,
      "Ġà¤¢à¤¹": 4095,
      "Ġnet": 4096,
      "provin": 4097,
      "Ġà¤ļà¤¯à¤¨à¤ķ": 4098,
      "ART": 4099,
      "1999": 4100,
      "province": 4101,
      "Ġq": 4102,
      "à¤¤à¤ļà¤°": 4103,
      "Ġà¤ªà¤Ĺ": 4104,
      "Ġà¤²à¤²à¤ķ": 4105,
      "Ġà¤§à¤¨à¤µ": 4106,
      "à¤°à¤®à¤¯": 4107,
      "Ġà¤¤à¤ķà¤¬": 4108,
      "Â¥Âĥ": 4109,
      "Ġà¤Ĩà¤ľà¤®": 4110,
      "ania": 4111,
      "ĠST": 4112,
      "à¤®à¤¦à¤¦": 4113,
      "Ġà¤ľà¤²à¤¤": 4114,
      "Ġà¤¨à¤®à¤¸": 4115,
      "à¤¶à¤Ńà¤°": 4116,
      "à¤ĩà¤®à¤°": 4117,
      "à¤¤à¤°à¤ª": 4118,
      "Ġà¤Ľà¤Ł": 4119,
      "Ġà¤ľà¤¬à¤¡": 4120,
      "à¤Ĺà¤°à¤ª": 4121,
      "Â¤Â¢": 4122,
      "Ġ57": 4123,
      "Ġcheck": 4124,
      "Ġ1969": 4125,
      "own": 4126,
      "à¤¾à¥ħ": 4127,
      "à¤¯à¤ľà¤²": 4128,
      "à¤¦à¤¯à¤¤": 4129,
      "Ġà¤¨à¤Ł": 4130,
      "Ġà¤¨à¤¸à¤°": 4131,
      "Ġà¤Ĩà¤¹à¤¤": 4132,
      "Ġà¤¶à¤°à¤¦": 4133,
      "à¥ĩà¥¤-": 4134,
      "à¤¯à¤°à¤«": 4135,
      "à¤Ķà¤°à¤¤": 4136,
      "à¤¹à¤®à¤¦": 4137,
      "à¤ıà¤¸à¤ı": 4138,
      "Ġà¤Ĩà¤Īà¤ıà¤«à¤¸": 4139,
      "Ġ67": 4140,
      "ĠSO": 4141,
      "nicode": 4142,
      "Ġ=%": 4143,
      "43": 4144,
      "49": 4145,
      "à¤¸à¤¨à¤ķ": 4146,
      "à¤ļà¤ª": 4147,
      "à¤ĭà¤¦": 4148,
      "à¤Ĩà¤Īà¤Ĩà¤°": 4149,
      "ens": 4150,
      "Ġ1966": 4151,
      "Ġby": 4152,
      "Ġ1929": 4153,
      "Imp": 4154,
      "Ġà¤¸à¤¨à¤ķ": 4155,
      "Ġà¤¨à¤°à¤ķ": 4156,
      "à¤¾à¥¤]": 4157,
      "Ġà¤ıà¤µà¤ľ": 4158,
      "Ġ78": 4159,
      "Ġà¥¨à¥§": 4160,
      "2006": 4161,
      "ĠVERSION": 4162,
      "Ġà¤ħà¤¸à¤¹à¤¯": 4163,
      "Region": 4164,
      "%%": 4165,
      "à¤°à¤²à¤¯": 4166,
      "Ġà¤ªà¤Ļ": 4167,
      "Ġà¤īà¤Ĺà¤¤": 4168,
      "Ġà¤Ĩà¤¸à¤ķ": 4169,
      "Ġà¤ªà¤°à¤ª": 4170,
      "Ġà¤ļà¤Łà¤°": 4171,
      "à¤µà¤°à¤¨": 4172,
      "Ġà¤¹à¤°à¤ľ": 4173,
      "à¤²à¤¬à¤®": 4174,
      "Ġ77": 4175,
      "Ġph": 4176,
      "Ġ132": 4177,
      "Ġà¤īà¤ľà¤°à¤¤": 4178,
      "sc": 4179,
      "à¤¿''": 4180,
      "Ġà¤ªà¤Ĺà¤¡": 4181,
      "Ġà¤¨à¤ĸ": 4182,
      "à¤¡à¤¶": 4183,
      "à¤īà¤ľà¤°": 4184,
      "Ġà¤Ŀà¤ķ": 4185,
      "Ġà¤ħà¤¸à¤¬": 4186,
      "ĠGT": 4187,
      "Ġà¤Łà¤¨à¤Ń": 4188,
      "ĠSMTP": 4189,
      "41": 4190,
      "HA": 4191,
      "à¤²à¤¹à¤°": 4192,
      "à¤ªà¤ľ": 4193,
      "Ġà¤²à¤ªà¤ķ": 4194,
      "à¤ľà¤ĭ": 4195,
      "Ġà¤Ĩà¤Ĺà¤¤": 4196,
      "Ġà¤ĸà¤®": 4197,
      "à¤ģà¤¾": 4198,
      "à¤°à¤ķà¤®": 4199,
      "à¤ĩà¤Łà¤°": 4200,
      "Ġà¤Ľà¤ķ": 4201,
      "à¤¯à¤¤à¤ķà¤°": 4202,
      "Ġ1919": 4203,
      "à¤Ĺà¤²à¤ªà¤¨": 4204,
      "Ġà¤¬à¤°à¤ª": 4205,
      "à¤µà¤ļà¤²": 4206,
      "Ġneeds": 4207,
      "\\\"": 4208,
      "à¤ķà¤°à¤¤": 4209,
      "Ġà¤ľà¤¬à¤°": 4210,
      "Ġà¤¬à¤²à¤ª": 4211,
      "Ġapp": 4212,
      "Ġà¤®à¤¶à¤µà¤°": 4213,
      "ĠUn": 4214,
      "Ġ1922": 4215,
      "Ġrare": 4216,
      "ĠGNOME": 4217,
      "ava": 4218,
      "KChar": 4219,
      "GP": 4220,
      "up": 4221,
      "Ġ....": 4222,
      "à¤¨à¤ľà¤°": 4223,
      "Ġà¤¸à¤¯": 4224,
      "à¥Ī%": 4225,
      "à¤ħà¤¥à¤µ": 4226,
      "Ġà¤¸à¤®à¤¯à¤¬à¤¦": 4227,
      "eskt": 4228,
      "Ġ69": 4229,
      "Ġà¤®à¤¸à¤²à¤¨": 4230,
      "ize": 4231,
      "Ġrarely": 4232,
      "esktop": 4233,
      "cent": 4234,
      "à¥ĩâĢĿ": 4235,
      "à¤Ĥ;": 4236,
      "à¤ķà¤ı": 4237,
      "Ġà¤¬à¤ķà¤µ": 4238,
      "à¤Łà¤¦": 4239,
      "Ġà¤Ĩà¤ĩà¤¸": 4240,
      "Ġà¤Ĩà¤ªà¤®": 4241,
      "à¤¤à¤¨à¤Ĺà¤°": 4242,
      "Ġà¤Īà¤ľ": 4243,
      "à¤Łà¤°Name": 4244,
      "tip": 4245,
      "Ġà¤Ńà¤°à¤ķà¤°": 4246,
      "Ġthis": 4247,
      "Ġà¤ħà¤«à¤µ": 4248,
      "Ġ1964": 4249,
      "italyprovince": 4250,
      ")/": 4251,
      "ED": 4252,
      "eceiv": 4253,
      "à¤®à¤ĺ": 4254,
      "Ġà¤ħà¤¦à¤®": 4255,
      "à¤¥à¤ķà¤¤": 4256,
      "Ġà¤¡à¤ļ": 4257,
      "Ġà¤Ĩà¤¦à¤°à¤£": 4258,
      "error": 4259,
      "ĠCMS": 4260,
      "ĠFree": 4261,
      "à¤¶à¤ĸà¤¬à¤°": 4262,
      "ged": 4263,
      "à¤°à¤ĺ": 4264,
      "Ġà¤®à¤®": 4265,
      "Ġà¤¦à¤ĸà¤²": 4266,
      "à¤¬à¤ª": 4267,
      "Ġà¤¨à¤¹à¤²": 4268,
      "à¤łà¤µ": 4269,
      "Ġà¤¸à¤¹à¤¦": 4270,
      "Ġsp": 4271,
      "Ġà¤ħà¤¬à¤¤à¤ķ": 4272,
      "Ġhow": 4273,
      "tk": 4274,
      "à¤¾à¥ĭ": 4275,
      "Ġà¤¤à¤¦à¤°": 4276,
      "à¤ıà¤Łà¤°": 4277,
      "à¤ģ-": 4278,
      "Ġà¤ħà¤²à¤®": 4279,
      "Ġà¤Ľà¤¦": 4280,
      "à¤ħà¤°à¤¬": 4281,
      "à¤¦à¤°à¤²": 4282,
      "Ġ81": 4283,
      "Ġà¤¦à¤²à¤¦à¤²": 4284,
      "object": 4285,
      "Ġblock": 4286,
      "Ġà¥¨à¥¦à¥¦à¥¦": 4287,
      "Ġ1928": 4288,
      "Ġ00": 4289,
      "Ġà¤£": 4290,
      "à¤¨à¤¬à¤°": 4291,
      "à¤ªà¤¸à¤®": 4292,
      "Ġà¤ľà¤ĸ": 4293,
      "à¤¬à¤Łà¤¨": 4294,
      "Ġà¤Ĩà¤¯à¤°à¤²": 4295,
      "Ġà¤ĳà¤ĸ": 4296,
      "à¤ľà¤°à¤²": 4297,
      "à¤Ĩà¤Īà¤µ": 4298,
      "à¤Ĩà¤Īà¤ıà¤«": 4299,
      "Ġ1934": 4300,
      "format": 4301,
      "ĠServer": 4302,
      "à¥ĢâĢĿ": 4303,
      "à¤ķà¤¸à¤®": 4304,
      "Ġà¤ħà¤°à¤ķ": 4305,
      "Ġà¤Ĩà¤¬à¤¦": 4306,
      "Ġà¤Ĩà¤²à¤¸": 4307,
      "à¤ĩà¤®à¤¨": 4308,
      "Ġà¥¨à¥®": 4309,
      "AND": 4310,
      "ribut": 4311,
      "SS": 4312,
      "ok": 4313,
      "Ġà¤¬à¤°à¤¦": 4314,
      "Ġà¤ħà¤¨à¤ª": 4315,
      "Ġà¤ıà¤µà¤®": 4316,
      "Ġ5000": 4317,
      "Ġat": 4318,
      "à¤Ĩà¤°à¤Ł": 4319,
      "olution": 4320,
      "à¤²à¤¹à¤µ": 4321,
      "END": 4322,
      "The": 4323,
      "te": 4324,
      "Ġà¤īà¤ĸà¤¡": 4325,
      "Ġà¤ļà¤ļ": 4326,
      "Ġà¤«à¤Łà¤ķ": 4327,
      "Ġà¤ħà¤µà¤ļ": 4328,
      "2019": 4329,
      "ĠSp": 4330,
      "ĠAl": 4331,
      "Ġà¤Ĺà¤£à¤®": 4332,
      "Ġ99": 4333,
      "select": 4334,
      "Ġ1983": 4335,
      "ive": 4336,
      "à¥ĩ!\"": 4337,
      "ader": 4338,
      "Ġà¤Ńà¤°à¤¤à¤ª": 4339,
      "umber": 4340,
      "apan": 4341,
      "MP": 4342,
      "à¤°à¤°à¤ķ": 4343,
      "à¤¿âĢĵ": 4344,
      "Ġà¤®à¤¢": 4345,
      "à¤Ĩà¤ĵ": 4346,
      "Ġà¤ħà¤²à¤ķ": 4347,
      "à¤®à¤¨à¤¸": 4348,
      "Ġà¤¸à¤®à¤Ŀà¤µ": 4349,
      "Ġà¤µà¤¸à¤µà¤¸": 4350,
      "à¥Ī?-": 4351,
      "à¤ĩà¤¸à¤µ": 4352,
      "Ġpl": 4353,
      "Ġ1958": 4354,
      "à¥«à¥¦": 4355,
      "à¥§à¥¨": 4356,
      "Ġà¤¨à¤«à¤¸": 4357,
      "ati": 4358,
      "br": 4359,
      "iB": 4360,
      "à¤¾]": 4361,
      "à¤Ĥà¤ĥ": 4362,
      "Ġà¤Ľà¤¤à¤°": 4363,
      "Ġsub": 4364,
      "Ġ800": 4365,
      "Ġeurop": 4366,
      "Ġunicode": 4367,
      "Ġrep": 4368,
      "xxxx": 4369,
      "Shortcut": 4370,
      "Ġâĺ»âĺ»âĺ»âĺ»": 4371,
      "58": 4372,
      "78": 4373,
      "yst": 4374,
      "Ġà¤µà¤²à¤¯": 4375,
      "Ġà¤°à¤Ĺ": 4376,
      "à¤¥à¤¦": 4377,
      "Ġà¤¸à¤®à¤¯à¤ķ": 4378,
      "à¤Ĩà¤¹": 4379,
      "Ġà¤Īà¤¦": 4380,
      "Ġà¤ĭà¤Ĺ": 4381,
      "Ġà¤ıà¤¨à¤ľ": 4382,
      "à¥ħà¤Ĥ": 4383,
      "oundation": 4384,
      "jesh": 4385,
      "lis": 4386,
      "à¤¨à¤¸à¤¨": 4387,
      "à¤¤à¤²à¤ķ": 4388,
      "à¤µà¤¬": 4389,
      "Ġà¤¶à¤²à¤Ń": 4390,
      "Ġà¤«à¤°à¤ľ": 4391,
      "Ġà¤Ĩà¤µà¤ķ": 4392,
      "Ġtar": 4393,
      "Ġà¤ıà¤¸à¤Ł": 4394,
      "Ġà¥¨à¥Ń": 4395,
      "Ġà¤¦à¤¶à¤°à¤¥": 4396,
      "à¥¨à¥¦": 4397,
      "ĠZà¤ķ": 4398,
      "ogl": 4399,
      "ource": 4400,
      "KCharselect": 4401,
      "73": 4402,
      "ox": 4403,
      "Ġà¤ķà¤¦à¤°": 4404,
      "à¤ķà¤ĺà¤°": 4405,
      "à¥ĪâĢĿà¥¤": 4406,
      "Ġà¤«à¤¨": 4407,
      "Ġà¤¸à¤®à¤·": 4408,
      "Ġ360": 4409,
      "reat": 4410,
      "Ġ1940": 4411,
      "Ġwar": 4412,
      "2003": 4413,
      "aI": 4414,
      "ui": 4415,
      "à¤°à¤ĸà¤°": 4416,
      "Ġà¤¨à¤Ĺà¤£": 4417,
      "à¤¼à¥ĩà¤Ĥà¥¤": 4418,
      "Ġà¤Ńà¤°à¤®": 4419,
      "Ġà¤¸à¤¹à¤®": 4420,
      "Ġà¤Ĩà¤¸à¤«": 4421,
      "ence": 4422,
      "Ġ1860": 4423,
      "Ġgroup": 4424,
      "urity": 4425,
      "Ġà¥ªà¥¦": 4426,
      "reen": 4427,
      "MB": 4428,
      "à¥įà¤¼": 4429,
      "Ġà¤ķà¤²à¤¨": 4430,
      "Ġà¤¨à¤µà¤²à¤°": 4431,
      "à¤Īà¤¹": 4432,
      "à¤Īà¤¬": 4433,
      "à¤ĺà¤®": 4434,
      "à¤ĭà¤ı": 4435,
      "Ġà¤¸à¤ľà¤Ĺ": 4436,
      "Ġà¤īà¤®à¤¡": 4437,
      "Ġ06": 4438,
      "à¤ıà¤«à¤ª": 4439,
      "ĠEx": 4440,
      "à¥§à¥«": 4441,
      "Ġyou": 4442,
      "à¥Ĩà¥¤": 4443,
      "gedit": 4444,
      "68": 4445,
      "92": 4446,
      "symb": 4447,
      "à¤¿?": 4448,
      "à¤¯à¤ªà¤°": 4449,
      "Ġà¤¸à¤¦à¤°": 4450,
      "Ġà¤ªà¤Łà¤°": 4451,
      "Ġà¤µà¤ĭ": 4452,
      "Ġà¤ıà¤²à¤¬à¤®": 4453,
      "Ġà¤īà¤ªà¤¤": 4454,
      "à¤¸à¤ķà¤¨": 4455,
      "Ġà¤¸à¤¨à¤¦": 4456,
      "ĠSoftware": 4457,
      "à¤Łà¤¤à¤¯": 4458,
      "Ġà¤¦à¤¹à¤¶à¤¤": 4459,
      "CH": 4460,
      "name": 4461,
      "¯à¥¦": 4462,
      "à¤¤à¤ĭ": 4463,
      "à¤¬à¤¹à¤°": 4464,
      "à¤Łà¤°à¤¸": 4465,
      "Ġà¤°à¤¬à¤°": 4466,
      "à¤·à¤¶": 4467,
      "à¤ĩà¤Ĺà¤°": 4468,
      "à¤¾à¤ģà¤ĥ": 4469,
      "Ġà¤Łà¤ªà¤ķ": 4470,
      "Ġtext": 4471,
      "à¤¼à¥ĭà¤Ĥ)": 4472,
      "oper": 4473,
      "nter": 4474,
      "Ġà¥¨à¥¦à¥¦à¥ª": 4475,
      "Ġversion": 4476,
      "à¤ľà¤¯à¤¨à¤Ĺà¤°": 4477,
      "51": 4478,
      "aO": 4479,
      "ax": 4480,
      "land": 4481,
      "à¤¾''": 4482,
      "à¤®à¤²à¤¤": 4483,
      "à¤ªà¤¤à¤°": 4484,
      "Ġà¤ľà¤²à¤¯": 4485,
      "Ġà¤Ńà¤¸": 4486,
      "Ġà¤¸à¤®à¤®": 4487,
      "Ġà¤¸à¤®à¤µà¤°": 4488,
      "à¤łà¤¹à¤°": 4489,
      "Ġà¤ħà¤ªà¤¸": 4490,
      "Ġà¤ľà¤²à¤®": 4491,
      "Ġaf": 4492,
      "ĠInc": 4493,
      "Ġmin": 4494,
      "Ġinmenu": 4495,
      "Ġ1937": 4496,
      "symbols": 4497,
      "Ad": 4498,
      "BM": 4499,
      "DA": 4500,
      "ault": 4501,
      "day": 4502,
      "à¥Ŀ": 4503,
      "à¥ģà¥į": 4504,
      "Ġà¤ħà¤¦à¤¨": 4505,
      "Ġà¤ıà¤²à¤°": 4506,
      "Ġà¤¥à¤®": 4507,
      "Ġ144": 4508,
      "Ġ'>>": 4509,
      "Ġà¤¬à¤°à¤ĸ": 4510,
      "Ġkey": 4511,
      "ĠIP": 4512,
      "isc": 4513,
      "ĠFoundation": 4514,
      "Ġà¥©à¥§": 4515,
      "view": 4516,
      "evel": 4517,
      "52": 4518,
      "600": 4519,
      "ff": 4520,
      "à¤¨à¤®à¤¨": 4521,
      "à¤¦à¤ľ": 4522,
      "à¤ªà¤Ĺ": 4523,
      "à¤Łà¤Ń": 4524,
      "à¤¡City": 4525,
      "à¤Īà¤ı": 4526,
      "à¤ķà¤¤à¤µà¤°": 4527,
      "à¤µà¤°à¤ļà¤¨": 4528,
      "Ġà¤īà¤ªà¤ª": 4529,
      "Ġset": 4530,
      "Ġà¤Ĩà¤Īà¤ķ": 4531,
      "ĠCogl": 4532,
      "Â¤ÂĤ.": 4533,
      "ments": 4534,
      "Ġ1979": 4535,
      "Ġà¤ıà¤¡à¤µà¤°": 4536,
      "à¤ªà¤¹à¤ļ": 4537,
      "\";": 4538,
      "91": 4539,
      "lu": 4540,
      "ĠÃ": 4541,
      "Ġà¤İ": 4542,
      "à¤ķà¤«": 4543,
      "à¤²à¤ĺ": 4544,
      "à¤£à¤§à¤°": 4545,
      "Ġà¤ĸà¤Łà¤ķ": 4546,
      "à¤ĩà¤ĳà¤ķ": 4547,
      "Ġà¤ĩà¤¨à¤¬": 4548,
      "Ġà¤ľà¤¨à¤°": 4549,
      "Ġfind": 4550,
      "Ġ160": 4551,
      "Ġha": 4552,
      "ign": 4553,
      "pla": 4554,
      "ty": 4555,
      "Ġà¥ĩ": 4556,
      "à¤¨à¤ĭ": 4557,
      "à¤ķà¤ľ": 4558,
      "à¤¯à¤ļà¤°": 4559,
      "Ġà¤ªà¤§": 4560,
      "Ġà¤ķà¤°à¤¦": 4561,
      "à¤·à¤°à¤£": 4562,
      "à¤·à¤§à¤°": 4563,
      "Ġà¤¶à¤¤à¤ķ": 4564,
      "Ġà¤ĵà¤²à¤®": 4565,
      "Ġ117": 4566,
      "Ġà¤¬à¤°à¤¸à¤¤": 4567,
      "ĠUT": 4568,
      "Ġwindow": 4569,
      "à¥§à¥§": 4570,
      "urr": 4571,
      "Ġà¤¨à¤°à¤®à¤ª": 4572,
      "efault": 4573,
      "ks": 4574,
      "à¤İ": 4575,
      "à¤¤weather": 4576,
      "à¤¯à¤¸à¤¨": 4577,
      "à¤Ĺà¤µà¤°": 4578,
      "à¤ľà¤¡": 4579,
      "à¤ĵà¤¡": 4580,
      "Ġà¤Ĳà¤ª": 4581,
      "Ġà¤¸à¤¹à¤ľà¤¤": 4582,
      "à¤ħà¤¹à¤²": 4583,
      "à¥Ģ.)": 4584,
      "Ġ700": 4585,
      "Ġ86": 4586,
      "à¥Ģà¤ĥ%": 4587,
      "Ġà¤īà¤ªà¤¨à¤Ĺà¤°": 4588,
      "Ġà¥¨à¥¦à¥¦à¥©": 4589,
      "app": 4590,
      "Constellation": 4591,
      "à¥į.": 4592,
      "à¥ĪÍ¾": 4593,
      "Ġà¤²à¤ªà¤Ł": 4594,
      "à¤ıà¤¹à¤ķ": 4595,
      "à¤ħà¤«à¤¸": 4596,
      "Ġà¤ĵà¤·": 4597,
      "à¤¤à¤®à¤ĩà¤¨": 4598,
      "à¤Ĭà¤ªà¤°": 4599,
      "Ġwh": 4600,
      "Ġwith": 4601,
      "ĠWeb": 4602,
      "Ġà¤Ĩà¤ĩà¤ķà¤¨": 4603,
      "à¥Ģà¤Ĥ?\"": 4604,
      "à¤ķà¤ļ": 4605,
      "Ġà¤®à¤¤à¤µ": 4606,
      "à¥ĩà¤Ĥ'": 4607,
      "à¤Ńà¤§": 4608,
      "Ġà¤ıà¤¨à¤µ": 4609,
      "à¤¤à¤¨à¤§": 4610,
      "Ġà¤Ŀà¤ªà¤Ł": 4611,
      "à¤Ĺà¤²à¤ķ": 4612,
      "Ġab": 4613,
      "Ġà¤ıà¤¨à¤ıà¤²": 4614,
      "ĠMac": 4615,
      "Ġà¤īà¤ľà¤¡": 4616,
      "Ġ1927": 4617,
      "1992": 4618,
      "CalImp": 4619,
      "Ġ(*.": 4620,
      "62": 4621,
      "iCalImp": 4622,
      "à¤¸à¤¦à¤¨": 4623,
      "Ġà¤ħà¤¶à¤°": 4624,
      "Ġà¤²à¤¹": 4625,
      "à¤ľà¤®à¤°": 4626,
      "à¤¶à¤ĭ": 4627,
      "Ġà¤ĸà¤ļ": 4628,
      "Ġ73": 4629,
      "Ġ180": 4630,
      "ĠPKC": 4631,
      "Ġ1953": 4632,
      "Ġ175": 4633,
      "........": 4634,
      "ssage": 4635,
      "ĠPKCS": 4636,
      "AB": 4637,
      "à¤µà¤¤à¤°": 4638,
      "Ġà¤īà¤ķà¤¤": 4639,
      "Ġà¤Ĩà¤¹à¤°": 4640,
      "Ġà¤Ńà¤ľà¤¨": 4641,
      "Ġà¤¸à¤®à¤µ": 4642,
      "à¤ĵà¤²": 4643,
      "à¤¤à¤°à¤¸": 4644,
      "à¤¯à¤ķà¤µ": 4645,
      "à¤°à¤®à¤µ": 4646,
      "Ġsqu": 4647,
      "à¤¡à¤²à¤°": 4648,
      "Ġ153": 4649,
      "Ġà¤ķà¤¤à¤Ī": 4650,
      "Ġà¤ªà¤°à¤µà¤²à¤¯": 4651,
      "bia": 4652,
      "eur": 4653,
      "à¤¿>": 4654,
      "à¥Ģà¥ĩ": 4655,
      "à¤¤à¤Ī": 4656,
      "à¤·à¤¯à¤°": 4657,
      "Ġà¤¶à¤¯à¤¨": 4658,
      "à¤°à¤¸à¤ķ": 4659,
      "Ġà¤ħà¤¸à¤¦": 4660,
      "Ġthat": 4661,
      "lass": 4662,
      "Ġ61": 4663,
      "Ġà¤ıà¤ļà¤Ĩà¤Īà¤µ": 4664,
      "Ġed": 4665,
      "Ġà¤Ĩà¤ĩà¤¸à¤²": 4666,
      "MIME": 4667,
      "low": 4668,
      "Â°": 4669,
      "à¤¿à¥ĩ": 4670,
      "à¤¸à¤ıà¤®à¤ıà¤²": 4671,
      "à¤ªà¤ķà¤²": 4672,
      "à¤ĹCity": 4673,
      "à¥ĭà¤Ĥ'": 4674,
      "Ġà¤īà¤¨à¤ĭ": 4675,
      "à¤ĵà¤µ": 4676,
      "Ġà¤Ĳà¤ļ": 4677,
      "à¤°à¤µà¤ª": 4678,
      "Ġà¤ľà¤¨à¤®": 4679,
      "Ġà¤ħà¤ľà¤Ĺà¤°": 4680,
      "Ġà¤¬à¤°à¤ķà¤°": 4681,
      "ico": 4682,
      "Ġà¤ķà¤łà¤ª": 4683,
      "Ġ84": 4684,
      "Ġ1968": 4685,
      "Ġà¤Ńà¤Ĺà¤µà¤¦": 4686,
      "ĠxA": 4687,
      "ĠKB": 4688,
      "LS": 4689,
      "à¤°à¤ł": 4690,
      "à¤ķà¤ĭ": 4691,
      "Ġà¤®à¤®à¤¤": 4692,
      "à¤Ĺà¤°à¤ķ": 4693,
      "à¤ľà¤µà¤²": 4694,
      "à¤¡à¤¬à¤²": 4695,
      "Ġà¤ıà¤¸à¤¸": 4696,
      "Ġà¤Īà¤¸à¤°": 4697,
      "à¤·à¤£à¤ķ": 4698,
      "à¥ĩ),": 4699,
      "ina": 4700,
      "str": 4701,
      "Ġ91": 4702,
      "ets": 4703,
      "Ġwill": 4704,
      "ell": 4705,
      "oss": 4706,
      "HT": 4707,
      "ST": 4708,
      "kaj": 4709,
      "line": 4710,
      "Ġ?": 4711,
      "Ġhere": 4712,
      "à¤¯à¤¥à¤¨": 4713,
      "à¤µà¤¨à¤¤": 4714,
      "à¤¬à¤°à¤¨": 4715,
      "Ġà¤ħà¤ªà¤¹": 4716,
      "Ġà¤ħà¤ªà¤ł": 4717,
      "à¤Ĭà¤¨": 4718,
      "à¤¸à¤¦à¤¸": 4719,
      "Ġ62": 4720,
      "ote": 4721,
      "Ġcan": 4722,
      "à¤ıà¤¨à¤ľ": 4723,
      "à¤ıà¤¨à¤ıà¤²": 4724,
      "Ġà¤Ĺà¤łà¤¬à¤¨": 4725,
      "à¤ĳà¤¡": 4726,
      "Ġtool": 4727,
      "jeshkaj": 4728,
      "jeshkajha": 4729,
      "94": 4730,
      "CK": 4731,
      "viii": 4732,
      "à¤ķà¤µà¤°": 4733,
      "Ġà¤¨à¤®à¤¨": 4734,
      "à¤¼à¥ĭà¤Ĥ,": 4735,
      "Ġà¤¤à¤¸à¤²": 4736,
      "Ġà¤ļà¤µ": 4737,
      "à¤ķà¤°à¤°": 4738,
      "à¤ĵà¤Ł": 4739,
      "à¤°à¤®à¤¨": 4740,
      "Ġà¤¤à¤¬à¤¦": 4741,
      "à¥ĩà¤Ĥ)à¥¤": 4742,
      "een": 4743,
      "ĠNew": 4744,
      "Ġ1932": 4745,
      "à¤ľà¤Ńà¤µà¤¨": 4746,
      "'à¥¤": 4747,
      "87": 4748,
      "Permissions": 4749,
      "ise": 4750,
      "ms": 4751,
      "ura": 4752,
      "Ġà¤īà¤ªà¤«": 4753,
      "Ġà¤¸à¤¹à¤ķà¤°": 4754,
      "à¤īà¤²à¤Ł": 4755,
      "à¥Ĥà¤ģ-": 4756,
      "Ġ1914": 4757,
      "Ġà¤¸à¤¦à¤®": 4758,
      "Ġtake": 4759,
      "Ġad": 4760,
      "à¥Ī).": 4761,
      "ĠDVD": 4762,
      "ystem": 4763,
      "IG": 4764,
      "min": 4765,
      "Ġen": 4766,
      "à¤Ĺà¤²à¤¨": 4767,
      "Ġà¤¤à¤Ĺ": 4768,
      "à¤Łà¤Ĺ": 4769,
      "à¤ĺà¤¤": 4770,
      "Ġà¤¤à¤¬à¤²": 4771,
      "lar": 4772,
      "ĠSHA": 4773,
      "Ġà¤ıà¤®à¤ª": 4774,
      "ĠMB": 4775,
      "olom": 4776,
      "Ġthem": 4777,
      "Ġà¥¬à¥¦": 4778,
      "1948": 4779,
      "ĠAPI": 4780,
      "72": 4781,
      "à¤¤à¤¬à¤¦": 4782,
      "à¤Ĺà¤Ĩà¤īà¤Ł": 4783,
      "Ġà¤µà¤¤à¤¨": 4784,
      "Ġà¤¬à¤µ": 4785,
      "à¥Ĥ!": 4786,
      "Ġà¤°à¤Ĺà¤¡": 4787,
      "Ġà¤ĩà¤Ĺ": 4788,
      "à¤łà¤¯": 4789,
      "Ġà¤ľà¤¬à¤°à¤¨": 4790,
      "à¤Łà¤°à¤µ": 4791,
      "à¤µà¤²à¤®": 4792,
      "Ġà¤ĩà¤¨à¤ķà¤®": 4793,
      "ical": 4794,
      "icial": 4795,
      "arn": 4796,
      "à¤·à¤°à¤ķà¤°": 4797,
      "Ġà¤ıà¤²à¤ª": 4798,
      "à¤ľà¤Ĺà¤£": 4799,
      "Ġuri": 4800,
      "ĠXML": 4801,
      "93": 4802,
      "MM": 4803,
      "link": 4804,
      "Ġà¤¹à¤°à¤ķ": 4805,
      "à¤®à¤¸à¤®à¤°": 4806,
      "à¥ĪâĢĵ": 4807,
      "Ġà¤°à¤ļà¤¯": 4808,
      "Ġà¤Ĩà¤ĩà¤¡": 4809,
      "Ġà¤¯à¤®à¤¨": 4810,
      "à¤Īà¤°": 4811,
      "Ġà¤ħà¤µà¤¦": 4812,
      "Ġà¤¸à¤°à¤ľ": 4813,
      "Ġà¤¬à¤ļà¤ķà¤°": 4814,
      "Ġà¤ľà¤¨à¤¸à¤®": 4815,
      "ick": 4816,
      "Ġà¤īà¤ªà¤¸à¤Ń": 4817,
      "Ġ110": 4818,
      "Ġà¤ĺà¤Łà¤ķà¤°": 4819,
      "Ġ1959": 4820,
      "ocial": 4821,
      "Ġà¤Ŀà¤Łà¤ªà¤Ł": 4822,
      "Ġofficial": 4823,
      "56": 4824,
      "OT": 4825,
      "jan": 4826,
      "Ġoption": 4827,
      "à¤®à¤ªà¤¤": 4828,
      "à¤®à¤Ľà¤²": 4829,
      "à¤¦à¤®à¤¤": 4830,
      "Ġà¤¨à¤µà¤°": 4831,
      "à¤¡à¤¯": 4832,
      "Ġà¤īà¤¨à¤µ": 4833,
      "Ġà¤¶à¤¤à¤°": 4834,
      "à¤Ĩà¤¯à¤¤": 4835,
      "Ġà¤ħà¤µà¤¯à¤¸": 4836,
      "Ġà¤Īà¤¨": 4837,
      "à¤¦à¤°à¤ľ": 4838,
      "à¤¤à¤ķà¤ļ": 4839,
      "à¤¯à¤¦à¤²": 4840,
      "à¤ıà¤¸à¤ıà¤®": 4841,
      "Ġkde": 4842,
      "ĠMA": 4843,
      "à¥§à¥Ń": 4844,
      "Ġ1936": 4845,
      "ctory": 4846,
      "},": 4847,
      "à¤¾âĢĶ": 4848,
      "à¤¯à¤¸à¤®": 4849,
      "à¤¼à¤ĥ": 4850,
      "à¤ķà¤°à¤¶": 4851,
      "à¤ĩà¤ªà¤²": 4852,
      "à¤Ĩà¤ªà¤¸": 4853,
      "à¥ĩ)à¥¤": 4854,
      "Ġsc": 4855,
      "Ġà¤¸à¤¨à¤¸à¤¨": 4856,
      "Ġch": 4857,
      "à¤ıà¤¨à¤¡": 4858,
      "etc": 4859,
      "ĠUS": 4860,
      "Ġuser": 4861,
      "ĠâĢ¦à¥¤": 4862,
      "Ġimp": 4863,
      "Ġà¤¦à¤«à¤¨": 4864,
      "ELEX": 4865,
      "VS": 4866,
      "iew": 4867,
      "à¤¨à¤ªà¤¤": 4868,
      "à¤¤à¤¹à¤ķ": 4869,
      "à¤Ĺà¤¤à¤¨": 4870,
      "Ġà¤¨à¤Ń": 4871,
      "à¤¶à¤¬à¤¨": 4872,
      "Ġà¤¯à¤ķà¤¸": 4873,
      "Ġà¤īà¤ªà¤²à¤ķ": 4874,
      "à¤¶à¤¨à¤¶": 4875,
      "0059": 4876,
      "Ġà¤¬à¤¢à¤ķà¤°": 4877,
      "Ġà¤¸à¤¦à¤Ń": 4878,
      "Ġà¤ħà¤ķà¤¸": 4879,
      "Ġ32001": 4880,
      "à¤Ĩà¤Īà¤ıà¤²": 4881,
      "ĠCELEX": 4882,
      "Ġà¤®à¤¸à¤ĸà¤°": 4883,
      "Ġtranslations": 4884,
      "---": 4885,
      "Ġeu": 4886,
      "ĠJob": 4887,
      "Ġeuropa": 4888,
      "Ġà¤Ĩà¤¬à¤°": 4889,
      "à¤Ńà¤ķà¤°": 4890,
      "Ġà¤¸à¤°à¤¸à¤°": 4891,
      "Ġà¤ħà¤ªà¤ļ": 4892,
      "Ġsh": 4893,
      "Ġ1944": 4894,
      "Ġà¤¬à¤¦à¤®": 4895,
      "Ġà¤ķà¤²à¤ķ": 4896,
      "Ġà¤ķà¤²à¤¶": 4897,
      "Ġà¤Ĺà¤£à¤ķ": 4898,
      "Ġ93": 4899,
      "olum": 4900,
      "Ġà¥¨à¥¦à¥¦à¥¯": 4901,
      "GE": 4902,
      "ative": 4903,
      "Ġà¤¬à¤¸à¤°": 4904,
      "à¤¬à¤ķà¤°": 4905,
      "à¤¬à¤°à¤®": 4906,
      "Ġà¤ħà¤¸à¤¹à¤¨": 4907,
      "Ġ1905": 4908,
      "à¤¬à¤²à¤¡à¤¨": 4909,
      "Ġà¤ĭà¤¸": 4910,
      "Ġà¤ĭà¤£à¤ķà¤°": 4911,
      "ĠCA": 4912,
      "opy": 4913,
      "ari": 4914,
      "ĠPr": 4915,
      "à¤ıà¤¨à¤ª": 4916,
      "ĠmaoM": 4917,
      "dir": 4918,
      "spain": 4919,
      "ESS": 4920,
      "libgnome": 4921,
      "ya": 4922,
      "à¥ĩâĢĻ": 4923,
      "à¤¯à¤°à¤®": 4924,
      "à¤§à¤¦": 4925,
      "à¤ħà¤°à¤µ": 4926,
      "Ġà¤Ĩà¤¯à¤°": 4927,
      "ared": 4928,
      "à¤Ĺà¤¡à¤®": 4929,
      "ĠImage": 4930,
      "ĠPlease": 4931,
      "ĠBenefit": 4932,
      "ĠYahoo": 4933,
      "uertor": 4934,
      "uertorico": 4935,
      "fig": 4936,
      "à¥ĩà¥į": 4937,
      "à¤¤à¤Ł": 4938,
      "à¤¯à¤«": 4939,
      "à¤¸à¤¯": 4940,
      "Ġà¤¸à¤Ĭà¤¦": 4941,
      "Ġà¤®à¤²à¤ķ": 4942,
      "à¤Ĺà¤ļ": 4943,
      "à¤Ĺà¤Ľ": 4944,
      "à¤ļà¤¹": 4945,
      "à¤ļà¤ĸ": 4946,
      "Ġà¤ıà¤¥": 4947,
      "à¤°à¤¤à¤²": 4948,
      "à¤ķà¤°à¤ķ": 4949,
      "à¤ķà¤¤à¤¨": 4950,
      "Ġà¤łà¤¹": 4951,
      "Ġà¤¬à¤¸à¤¤": 4952,
      "tions": 4953,
      "à¤ıà¤¸à¤Ī": 4954,
      "Ġ900": 4955,
      "Ġ1500": 4956,
      "Ġà¤ıà¤²à¤¡": 4957,
      "ĠDescription": 4958,
      "à¥§à¥¬": 4959,
      "Ġà¤İà¤¸": 4960,
      ",-": 4961,
      "mm": 4962,
      "à¤ķà¤ł": 4963,
      "Ġà¤¸à¤¹à¤°": 4964,
      "à¤®à¤ķà¤°": 4965,
      "à¤ªà¤Ń": 4966,
      "Ġà¤ľà¤łà¤°": 4967,
      "Ġà¤ħà¤Łà¤ķ": 4968,
      "Ġà¤¨à¤¯à¤¨": 4969,
      "Ġà¤°à¤Ļ": 4970,
      "à¤¤à¤°à¤¨": 4971,
      "à¥Ī,âĢĵ": 4972,
      "Ġà¤Ĳà¤ľ": 4973,
      "Ġà¤Ĩà¤¯à¤¨": 4974,
      "à¤¯à¤²à¤µ": 4975,
      "à¤ªà¤£à¤¤": 4976,
      "isp": 4977,
      "Ġà¤ªà¤¨à¤¡": 4978,
      "ĠUID": 4979,
      "à¤¦à¤¹à¤µ": 4980,
      "EGIN": 4981,
      "olombia": 4982,
      "à¥ĩà¤¾": 4983,
      "Ġà¤ħà¤ªà¤¤": 4984,
      "à¥¤à¥¤": 4985,
      "à¤ıà¤¤": 4986,
      "à¥Ī,\"": 4987,
      "Ġstring": 4988,
      "Ġà¤ľà¤¨à¤µ": 4989,
      "Ġ71": 4990,
      "arch": 4991,
      "ĠMS": 4992,
      "ĠThis": 4993,
      "Ġ1941": 4994,
      "Ġ1982": 4995,
      "à¥§à¥¯à¥Ń": 4996,
      "utilus": 4997,
      "IF": 4998,
      "PA": 4999,
      "row": 5000,
      "à¤°à¤ħ": 5001,
      "Ġà¤®à¤°à¤¦": 5002,
      "à¤ªà¤ª": 5003,
      "à¤¼!": 5004,
      "à¤§à¤¯": 5005,
      "Ġà¤Ńà¤°à¤¸à¤ķ": 5006,
      "Ġà¤«à¤Łà¤¨": 5007,
      "à¤°à¤£à¤¯": 5008,
      "à¤Ĩà¤«": 5009,
      "à¤ħà¤ªà¤°": 5010,
      "Ġà¤®à¤¦à¤°à¤¸": 5011,
      "Ġ87": 5012,
      "hed": 5013,
      "à¤ıà¤«à¤Ĩà¤°à¤¡": 5014,
      "razil": 5015,
      "Ġà¥§à¥¦à¥¦à¥¦": 5016,
      "Ġ1924": 5017,
      "work": 5018,
      "ook": 5019,
      "Ġsquared": 5020,
      "BEGIN": 5021,
      "rl": 5022,
      "ver": 5023,
      "ward": 5024,
      "à¤¨à¤Ĺà¤¤": 5025,
      "à¤ªà¤¶à¤ķ": 5026,
      "à¤ªà¤ĭ": 5027,
      "Ġà¤īà¤«": 5028,
      "à¤¾,\"": 5029,
      "Ġà¤Īà¤µ": 5030,
      "Ġà¤Īà¤Ĩà¤Īà¤ı": 5031,
      "Ġ1917": 5032,
      "Ġ3000": 5033,
      "Ġ76": 5034,
      "enti": 5035,
      "rec": 5036,
      "uth": 5037,
      "Ġyour": 5038,
      "BN": 5039,
      "RA": 5040,
      "mac": 5041,
      "puertorico": 5042,
      "à¤Ĺà¤²à¤¤": 5043,
      "Ġà¤¤à¤¹à¤°": 5044,
      "Ġà¤¶à¤¹à¤¤": 5045,
      "à¤ģ/": 5046,
      "à¤ĩà¤ķà¤°": 5047,
      "Ġà¤Īà¤¡": 5048,
      "à¤°à¤µà¤ļà¤¨": 5049,
      "à¤§à¤¨à¤°": 5050,
      "ĠId": 5051,
      "ref": 5052,
      "ĠMIME": 5053,
      "Ġ2020": 5054,
      "ĠDo": 5055,
      "Ġà¥§à¥¯à¥¨": 5056,
      "Ġ271": 5057,
      "trl": 5058,
      "trol": 5059,
      "Ġà¤ĵà¤µà¤°à¤°": 5060,
      "EXT": 5061,
      "ĠGTK": 5062,
      "150": 5063,
      "61": 5064,
      "MD": 5065,
      "rg": 5066,
      "à¦": 5067,
      "Ġhe": 5068,
      "Ġà¤ħà¤ķà¤°": 5069,
      "Ġà¤¬à¤«": 5070,
      "Ġà¤¤à¤µà¤ľ": 5071,
      "Ġà¤¦à¤¹à¤¨": 5072,
      "à¤ıà¤¤à¤¨": 5073,
      "à¤§à¤ļ": 5074,
      "à¤°à¤µà¤¶": 5075,
      "Ġà¤ħà¤®à¤°à¤¤": 5076,
      "Ġ124": 5077,
      "Ġ112": 5078,
      "à¤ªà¤²à¤Ł": 5079,
      "ador": 5080,
      "Ġcomp": 5081,
      "book": 5082,
      "gtk": 5083,
      "earch": 5084,
      "Ġphp": 5085,
      "DVD": 5086,
      "Mac": 5087,
      "TY": 5088,
      "yle": 5089,
      "à¤¡à¤ľ": 5090,
      "à¤¥à¤¹": 5091,
      "Ġà¤¹à¤®à¤°": 5092,
      "à¤łà¤¤à¤®": 5093,
      "Ġ101": 5094,
      "à¤¾à¤ģ!": 5095,
      "à¤Ĺà¤°à¤ľ": 5096,
      "Ġsome": 5097,
      "à¤ĩà¤²à¤°": 5098,
      "Ġà¤łà¤Ĺ": 5099,
      "Ġ98": 5100,
      "ĠIII": 5101,
      "ĠFor": 5102,
      "Ġmbox": 5103,
      "dio": 5104,
      "ugin": 5105,
      "Ġà¤²à¤Łà¤ķà¤¤": 5106,
      "oh": 5107,
      "odi": 5108,
      "transla": 5109,
      "Ġhelp": 5110,
      "à¤¦à¤ĸ": 5111,
      "Ġà¤¨à¤ĭ": 5112,
      "à¥Ģà¤Ĥà¤ĥ": 5113,
      "Ġà¤¡à¤®": 5114,
      "à¤ħà¤Ĺà¤²": 5115,
      "à¤¯à¤¨à¤¶": 5116,
      "Ġà¤¬à¤¦à¤¬": 5117,
      "Ġà¤¬à¤¤à¤ĸ": 5118,
      "Ġth": 5119,
      "à¤ıà¤¸à¤Ĩà¤°": 5120,
      "ĠCom": 5121,
      "ĠAaO": 5122,
      "à¤ĳà¤ªà¤°": 5123,
      "Ġif": 5124,
      "ĠUTF": 5125,
      "69": 5126,
      "79": 5127,
      "Meeting": 5128,
      "Send": 5129,
      "ime": 5130,
      "à¤°Name": 5131,
      "à¤¹à¤Ń": 5132,
      "à¤µà¤ķà¤°": 5133,
      "Ġà¤ľà¤ĺà¤¨": 5134,
      "à¤¼à¤¾à¤Ĥ": 5135,
      "Ġà¤¤à¤Łà¤µà¤°": 5136,
      "Ġà¤Ķà¤§": 5137,
      "à¤¬à¤¹à¤¨": 5138,
      "Ġà¤Ĩà¤£à¤µ": 5139,
      "Ġà¤¶à¤°à¤¤": 5140,
      "Ġà¤«à¤¡": 5141,
      "Ġà¤¡à¤Ĺà¤®à¤Ĺ": 5142,
      "Ġà¤ħà¤²à¤¬": 5143,
      "Ġà¤Ĩà¤¯à¤°à¤¨": 5144,
      "à¤ķà¤²à¤µ": 5145,
      "à¤¼à¥ĭ)": 5146,
      "Ġà¤®à¤ľà¤²": 5147,
      "ĠCSV": 5148,
      "âĢĿ>": 5149,
      "Ġà¤ıà¤®à¤ĵ": 5150,
      "vià¤ķ": 5151,
      "à¤ıà¤ļà¤¡": 5152,
      "ocess": 5153,
      "à¥Ĩà¤Ĥ": 5154,
      "uery": 5155,
      "olumn": 5156,
      "LE": 5157,
      "ik": 5158,
      "ted": 5159,
      "ĠÎ": 5160,
      "à¤ķà¤¥à¤¨": 5161,
      "Ġà¤ªà¤Łà¤ķ": 5162,
      "Ġà¤®à¤¨à¤ķ": 5163,
      "Ġà¤ħà¤ķà¤²": 5164,
      "Ġà¤īà¤ĺ": 5165,
      "à¤¬à¤°à¤¤": 5166,
      "à¤°à¤¤à¤°": 5167,
      "Ġà¤«à¤¹à¤°": 5168,
      "Ġà¤¸à¤¹à¤²à¤Ĺ": 5169,
      "à¥ĭ,\"": 5170,
      "à¤µà¤²à¤ª": 5171,
      "Ġà¤Ĩà¤¨à¤²": 5172,
      "à¤Ĭà¤¸": 5173,
      "à¤²à¤Ĺà¤Ńà¤Ĺ": 5174,
      "à¤ĭà¤Ī": 5175,
      "ope": 5176,
      "oth": 5177,
      "ator": 5178,
      "ĠAN": 5179,
      "Ġ96": 5180,
      "Ġà¤ıà¤®à¤¡": 5181,
      "Ġpre": 5182,
      "à¤ľà¤Ĺà¤¹": 5183,
      "search": 5184,
      "Ġgoogle": 5185,
      "asia": 5186,
      "ĠâĢĻâĢĻ": 5187,
      "à¥Ĥà¤ģ?\"": 5188,
      "SCII": 5189,
      "ĠAaOr": 5190,
      "%%)": 5191,
      "Please": 5192,
      "],": 5193,
      "à¤¤à¤¡": 5194,
      "à¥ĭâĢĵ": 5195,
      "Ġà¤ªà¤¦à¤¨": 5196,
      "Ġà¤ħà¤°à¤£": 5197,
      "Ġà¤¤à¤¹à¤ķ": 5198,
      "Ġà¤īà¤ľà¤¬": 5199,
      "Ġà¤¦à¤¯à¤¨": 5200,
      "à¤ļà¤¸à¤ĸ": 5201,
      "à¤ĸà¤Łà¤ķ": 5202,
      "à¤ĸà¤¬à¤¦": 5203,
      "à¤Ľà¤Ĺà¤Ľ": 5204,
      "Ġà¤ħà¤¨à¤ļ": 5205,
      "Ġà¤Łà¤ĸà¤¨": 5206,
      "Ġà¤ĩà¤¨à¤ľ": 5207,
      "à¤µà¤¨à¤¶": 5208,
      "à¤ķà¤Łà¤¸": 5209,
      "Ġdx": 5210,
      "ĠCVS": 5211,
      "Ġà¥¨à¥¯": 5212,
      "ated": 5213,
      "Ġprovin": 5214,
      "Ġmail": 5215,
      "Ġà¤ļà¤°à¤£à¤¬à¤¦": 5216,
      "Ġà¤®à¤¸à¤²à¤¹à¤¤": 5217,
      "à¤ħà¤Ĺà¤°à¤ļ": 5218,
      "Ġà¤įà¤¨": 5219,
      "à¤¾à¥°à¥¤": 5220,
      "Ġà¤ıà¤Łà¤²à¤¸": 5221,
      "zilla": 5222,
      "Ġprovinces": 5223,
      "57": 5224,
      "use": 5225,
      "à¤¼à¥ĩà¤Ĥ,": 5226,
      "Ġà¤¤à¤ľà¤µ": 5227,
      "à¤¬à¤¦à¤¨": 5228,
      "à¤·à¤µ": 5229,
      "Ġà¤ļà¤°à¤µ": 5230,
      "Ġà¤īà¤ªà¤²": 5231,
      "Ġà¤īà¤¤à¤ĭ": 5232,
      "Ġà¤Ŀà¤°": 5233,
      "à¤¡à¤°à¤²": 5234,
      "Ġà¤¤à¤¬à¤¤à¤ķ": 5235,
      "Ġ82": 5236,
      "Ġ97": 5237,
      "Ġà¤®à¤¶à¤°": 5238,
      "Ġà¥§à¥¯à¥¯à¥¦": 5239,
      "ĠxE": 5240,
      "à¤¤à¤ªà¤Łà¤²": 5241,
      "à¥§à¥ª": 5242,
      "Ġà¤¨à¤ľà¤°à¤ħ": 5243,
      "iver": 5244,
      "Ġ1923": 5245,
      "âĺº": 5246,
      "Ġà¥§à¥¯à¥¦": 5247,
      "CO": 5248,
      "ĠË": 5249,
      "à¥Ģà¤¾": 5250,
      "à¤ķà¤¹à¤¤": 5251,
      "Ġà¤¸à¤Ĺà¤°": 5252,
      "Ġà¤ªà¤Ľ": 5253,
      "à¤Ĺà¤µà¤¶": 5254,
      "Ġà¤ħà¤ĳà¤«": 5255,
      "Ġà¤ıà¤¤à¤°": 5256,
      "Ġà¤ļà¤ķà¤°": 5257,
      "Ġà¤ħà¤¨à¤ªà¤¢": 5258,
      "à¤°à¤ķà¤¨": 5259,
      "Ġà¤īà¤ªà¤ķà¤°": 5260,
      "à¤īà¤¤à¤°": 5261,
      "Ġà¤¸à¤°à¤¨": 5262,
      "Ġà¤¬à¤²à¤¶": 5263,
      "ang": 5264,
      "eet": 5265,
      "Ġà¤Ĺà¤£à¤¤à¤¨": 5266,
      "rap": 5267,
      "à¥§à¥©": 5268,
      "lication": 5269,
      "ĠISBN": 5270,
      "Ġtooltip": 5271,
      "400": 5272,
      "82": 5273,
      "CP": 5274,
      "ght": 5275,
      "ib": 5276,
      "Ġà¤ŀ": 5277,
      "à¤¯à¤°à¤ķ": 5278,
      "à¤¯à¤ļà¤ķ": 5279,
      "Ġà¤īà¤Ľà¤²": 5280,
      "Ġà¤Ĺà¤ª": 5281,
      "Ġà¤ªà¤°à¤Ńà¤ķ": 5282,
      "Ġà¤ıà¤¹à¤¤": 5283,
      "Ġà¤īà¤ªà¤¶à¤®à¤¨": 5284,
      "à¥Ī..": 5285,
      "Ġà¤¸à¤¤à¤²": 5286,
      "à¤¨à¤µà¤ľ": 5287,
      "à¤ĭà¤¯": 5288,
      "Ġ79": 5289,
      "Ġ1200": 5290,
      "old": 5291,
      "rack": 5292,
      "Ġ143": 5293,
      "Ġ1925": 5294,
      "1990": 5295,
      "ules": 5296,
      "IST": 5297,
      "Ġ\\\\\\\\": 5298,
      "Ġabout": 5299,
      ",\"": 5300,
      "Long": 5301,
      "ful": 5302,
      "net": 5303,
      "à¥įà¤Ĥ": 5304,
      "Ġà¤ķà¤¢": 5305,
      "à¤¨à¤ĸ": 5306,
      "Ġà¤®à¤Ŀ": 5307,
      "Ġà¤¨à¤µà¤ª": 5308,
      "à¤Łà¤¹": 5309,
      "à¤Łà¤ľ": 5310,
      "Ġà¤¯à¤°": 5311,
      "Ġà¤ĩà¤ķà¤¤": 5312,
      "à¤«à¤¹à¤®": 5313,
      "à¤¼à¥ĩ.": 5314,
      "ont": 5315,
      "à¤Ĺà¤²à¤µ": 5316,
      "Ġà¤ľà¤®à¤ķà¤°": 5317,
      "Ġà¤Ĩà¤Īà¤¬": 5318,
      "Ġà¤ıà¤¸à¤ıà¤¸à¤ıà¤²": 5319,
      "ĠAIM": 5320,
      "ĠMail": 5321,
      "Â¤ÂĤ...": 5322,
      "Ġinc": 5323,
      "Â¥ÂĪ.": 5324,
      "Ġmessage": 5325,
      "Ġhave": 5326,
      "71": 5327,
      "pl": 5328,
      "vel": 5329,
      "ĠÅ": 5330,
      "à¤¿à¤¾": 5331,
      "à¤²à¤ķà¤¨": 5332,
      "à¤²à¤ĸà¤°": 5333,
      "Ġà¤®à¤¸à¤¨": 5334,
      "à¤µà¤«": 5335,
      "à¤§à¤ľà¤¨": 5336,
      "Ġà¤Ĺà¤¹": 5337,
      "à¤ĩà¤«à¤²": 5338,
      "à¤¼à¥Ģ.": 5339,
      "à¤¶à¤¨à¤ķ": 5340,
      "Ġ'(": 5341,
      "ans": 5342,
      "Ġday": 5343,
      "Ġdire": 5344,
      "Ġà¤ħà¤¦à¤Ń": 5345,
      "à¤ĭà¤Ĩ": 5346,
      "Ġà¤Ĩà¤ĸà¤°": 5347,
      "Ġ89": 5348,
      "ĠFolder": 5349,
      "Ġman": 5350,
      "Ġà¤ªà¤¨à¤ª": 5351,
      "ĠRes": 5352,
      "à¤®à¤ľà¤¦": 5353,
      "Ġ288": 5354,
      "à¥§à¥¯à¥¯à¥": 5355,
      "colombia": 5356,
      "how": 5357,
      "sv": 5358,
      "Ġic": 5359,
      "à¤¾âĢĵ": 5360,
      "à¤ķà¤ļà¤°": 5361,
      "à¤¸à¤ł": 5362,
      "Ġà¤¸à¤¶à¤°": 5363,
      "Ġà¤µà¤°à¤£": 5364,
      "à¤¡à¤¡": 5365,
      "Ġà¤ıà¤µà¤°": 5366,
      "à¤Ŀà¤¡": 5367,
      "Ġà¤Ľà¤¬": 5368,
      "à¥Ī.%": 5369,
      "Ġà¤¸à¤¬à¤²": 5370,
      "à¤¶à¤¤à¤¤": 5371,
      "ĠAr": 5372,
      "Ġproper": 5373,
      "ism": 5374,
      "Ġbug": 5375,
      "à¤°à¤ĸà¤ª": 5376,
      "Ġ1926": 5377,
      "ATA": 5378,
      "Ġreg": 5379,
      "Ġà¥§à¥¯à¥¯à¥¬": 5380,
      "à¤ķà¤ıà¤£": 5381,
      "Ġimpli": 5382,
      "DF": 5383,
      "UM": 5384,
      "brazil": 5385,
      "japan": 5386,
      "sing": 5387,
      "ĉĠĠ": 5388,
      "à¤®à¤Ī": 5389,
      "à¤²à¤¸à¤°": 5390,
      "Ġà¤īà¤Ĺà¤¨": 5391,
      "Ġà¤²à¤°": 5392,
      "Ġà¤Ĺà¤ĭ": 5393,
      "à¤Ńà¤Ĺà¤¤": 5394,
      "Ġà¤«à¤£": 5395,
      "à¤ªà¤°à¤¨": 5396,
      "Ġà¤¬à¤¹à¤²": 5397,
      "à¥Ģ)à¥¤": 5398,
      ".....": 5399,
      "Ġà¤Ĭà¤¬": 5400,
      "ala": 5401,
      "Ġà¤ĩà¤²à¤ľ": 5402,
      "Ġà¤ıà¤¸à¤ı": 5403,
      "Ġ1800": 5404,
      "à¤Ĺà¤¦à¤¸": 5405,
      "ĠMiB": 5406,
      "ĠPGP": 5407,
      "à¤ıà¤«à¤ıà¤¸": 5408,
      "urn": 5409,
      "ĠKo": 5410,
      ">%": 5411,
      "ÃĹ": 5412,
      "ĠĉĠĠ": 5413,
      "à¤¾:-": 5414,
      "à¤¨à¤°à¤¸": 5415,
      "Ġà¤ªà¤ª": 5416,
      "à¤ľà¤Ł": 5417,
      "Ġà¤Ĩà¤£": 5418,
      "Ġà¤Ĺà¤®à¤¨": 5419,
      "Ġà¤ªà¤°à¤ļ": 5420,
      "Ġà¤ªà¤°à¤Ľ": 5421,
      "à¤ĵà¤¬": 5422,
      "à¤ľà¤¨à¤¶": 5423,
      "à¤°à¤®à¤µà¤°": 5424,
      "à¤ªà¤°à¤²": 5425,
      "à¤²à¤¨à¤¶": 5426,
      "à¤µà¤¨à¤µ": 5427,
      "à¤ħà¤µà¤§": 5428,
      "Ġà¤Ŀà¤ªà¤ķà¤¨": 5429,
      "Ġ1913": 5430,
      "Ġà¤¬à¤¦à¤Ĺ": 5431,
      "Ġà¤Ĺà¤°à¤ľ": 5432,
      "à¤ıà¤²à¤ıà¤¸": 5433,
      "à¥Īà¤Ĥ),": 5434,
      "à¤ıà¤¨à¤ıà¤¸": 5435,
      "Ġbenefit": 5436,
      "ĠEmp": 5437,
      "ogram": 5438,
      "Ġrec": 5439,
      "athy": 5440,
      "53": 5441,
      "UL": 5442,
      "get": 5443,
      "lin": 5444,
      "à¤Ĥ?": 5445,
      "à¤¨à¤ļà¤°": 5446,
      "à¤ķà¤Łà¤¨": 5447,
      "Ġà¤¸à¤Ļ": 5448,
      "Ġà¤®à¤Łà¤°": 5449,
      "à¥ĪâĢĶ": 5450,
      "Ġà¤²à¤«": 5451,
      "Ġà¤ĩà¤¯": 5452,
      "à¤Ľà¤Ł": 5453,
      "à¤ĩà¤°à¤¸": 5454,
      "Ġ\"(": 5455,
      "Ġà¤Ĩà¤°à¤ª": 5456,
      "Ġ1918": 5457,
      "Ġà¤¬à¤¦à¤²à¤µ": 5458,
      "ork": 5459,
      "Ġà¤¹à¤¸à¤°à¤¤": 5460,
      "Ġà¤ħà¤ĸà¤£": 5461,
      "à¥©à¥¦": 5462,
      "à¤ĳà¤¨": 5463,
      "chan": 5464,
      "Ġà¤ıà¤°à¤¡": 5465,
      "HS": 5466,
      "ung": 5467,
      "à¥Ħ": 5468,
      "à¤¿âĢį": 5469,
      "à¤ķà¤§": 5470,
      "à¤®à¤¥": 5471,
      "à¥Ī/": 5472,
      "Ġà¤µà¤®à¤¨": 5473,
      "à¤§à¤ľ": 5474,
      "à¤¡à¤¯à¤¨": 5475,
      "à¤ĸà¤¸": 5476,
      "Ġà¤ıà¤¤à¤¬": 5477,
      "à¤ģ;": 5478,
      "Ġà¤¯à¤¹à¤¯": 5479,
      "à¤ľà¤¨à¤¸": 5480,
      "à¤¯à¤¤à¤ķ": 5481,
      "à¤ħà¤¶": 5482,
      "à¤ĺà¤¬à¤°": 5483,
      "Ġà¤ĵà¤Ŀà¤²": 5484,
      "à¤°à¤¨à¤²": 5485,
      "à¤ªà¤ķà¤¡": 5486,
      "ithou": 5487,
      "Ġà¤¦à¤¶à¤¹à¤°": 5488,
      "ofs": 5489,
      "dian": 5490,
      "Ġgt": 5491,
      "Ġgra": 5492,
      "Ġà¥©à¥«": 5493,
      "Ġ1933": 5494,
      "Ġà¥§à¥¯à¥¯à¥¯": 5495,
      "Ġ1882": 5496,
      "redhat": 5497,
      "ithout": 5498,
      "ml": 5499,
      "ool": 5500,
      "pen": 5501,
      "à¤ķà¤ĺ": 5502,
      "à¤²à¤¸à¤¨": 5503,
      "Ġà¤ªà¤ķà¤¨": 5504,
      "Ġà¤ħà¤¤à¤°": 5505,
      "à¤ĸà¤¬": 5506,
      "Ġà¤ªà¤°à¤ĸà¤¨": 5507,
      "Ġà¤ļà¤Łà¤ķ": 5508,
      "Ġà¤¥à¤²à¤Ĺ": 5509,
      "Ġà¤²à¤Ĺà¤µ": 5510,
      "Ġà¤ħà¤µà¤¨à¤¤": 5511,
      "à¤ħà¤®à¤°": 5512,
      "à¤īà¤ªà¤¨": 5513,
      "à¤¯à¤µà¤¤": 5514,
      "Ġà¤Ĩà¤°à¤ıà¤«à¤ª": 5515,
      "à¤¤à¤®à¤¸": 5516,
      "ery": 5517,
      "Ġtab": 5518,
      "Ġà¤ıà¤¸à¤µ": 5519,
      "ĠApp": 5520,
      "Ġcsv": 5521,
      "ĠFOR": 5522,
      "1988": 5523,
      ",.": 5524,
      "54": 5525,
      "DO": 5526,
      "Un": 5527,
      "\\.": 5528,
      "pg": 5529,
      "ven": 5530,
      "à¥ĭ...": 5531,
      "à¤ķà¤Łà¤°": 5532,
      "Ġà¤¹à¤¸à¤¦": 5533,
      "à¤²à¤ĭ": 5534,
      "Ġà¤µà¤¤": 5535,
      "à¤£à¤ľ": 5536,
      "à¤£à¤¯à¤¨": 5537,
      "Ġà¤ĩà¤²à¤ķ": 5538,
      "à¤°à¤¤à¤¤": 5539,
      "à¤°à¤¤à¤Ł": 5540,
      "à¤ĩà¤¬à¤²": 5541,
      "Ġsize": 5542,
      "Ġ1912": 5543,
      "à¥ĩà¤Ĥ,-": 5544,
      "ited": 5545,
      "Ġà¤Ĩà¤®à¤¦": 5546,
      "Ġà¤ıà¤¸à¤ıà¤ļ": 5547,
      "à¤Ĩà¤°à¤Ĩà¤ĩ": 5548,
      "isofs": 5549,
      "Ġper": 5550,
      "Ġ2500": 5551,
      "Ġ130": 5552,
      "à¥ĩà¤Ĥ?\"": 5553,
      "Ġà¤¹à¤łà¤§à¤°": 5554,
      ")%": 5555,
      "63": 5556,
      "81": 5557,
      "84": 5558,
      "ft": 5559,
      "sw": 5560,
      "Ġà¤¼": 5561,
      "à¤°à¤Ŀ": 5562,
      "à¤¹à¤ļà¤°": 5563,
      "à¥Ī\"": 5564,
      "Ġà¤²à¤¹à¤ľ": 5565,
      "à¤¡à¤«": 5566,
      "Ġà¤ĩà¤¤à¤®": 5567,
      "à¤Īà¤Ĺ": 5568,
      "Ġà¤ıà¤ķà¤¬": 5569,
      "Ġà¤ıà¤ķà¤¤à¤°à¤«": 5570,
      "à¥ĥ-": 5571,
      "Ġà¤ķà¤°à¤¤à¤¬": 5572,
      "à¥Ī,-": 5573,
      "Ġà¤Ĳà¤¡": 5574,
      "Ġà¤¸à¤¹à¤²": 5575,
      "à¤¤à¤®à¤¯": 5576,
      "âĢĻà¥¤": 5577,
      "Ġà¤¹à¤Łà¤¤": 5578,
      "ĠkI": 5579,
      "Ġ94": 5580,
      "ĠDN": 5581,
      "ĠGenericName": 5582,
      "Ġ1943": 5583,
      "Ġwithout": 5584,
      "china": 5585,
      "rick": 5586,
      "space": 5587,
      "nautilus": 5588,
      "-'": 5589,
      "@}": 5590,
      "Query": 5591,
      "ula": 5592,
      "Ġ000": 5593,
      "Ĥ§": 5594,
      "à¤Ĥ...": 5595,
      "à¤®à¤¯à¤ķ": 5596,
      "à¤µà¤®à¤¯": 5597,
      "à¤ªà¤¤à¤¨": 5598,
      "Ġà¤ħà¤°à¤®": 5599,
      "Ġà¤¨à¤µà¤¨": 5600,
      "Ġà¤¬à¤Ľ": 5601,
      "à¤¬à¤°à¤ķà¤¤": 5602,
      "à¤Łà¤°à¤¤": 5603,
      "à¤§à¤®à¤¨": 5604,
      "Ġà¤Ĺà¤Ľ": 5605,
      "Ġà¤ĸà¤°à¤ªà¤¤": 5606,
      "à¤¤à¤°à¤µ": 5607,
      "à¤Ĩà¤¡": 5608,
      "Ġà¤ħà¤²à¤¸": 5609,
      "à¤¸à¤°à¤²": 5610,
      "Ġà¤Łà¤®": 5611,
      "Ġà¤Īà¤ª": 5612,
      "Ġà¤Ĩà¤°à¤¬": 5613,
      "Ġà¤¬à¤¦à¤¬à¤ĸ": 5614,
      "à¤¯à¤°à¤¨à¤®": 5615,
      "à¥Ģ.,": 5616,
      "Ġar": 5617,
      "Ġav": 5618,
      "...)": 5619,
      "Ġà¤¸à¤²à¤®": 5620,
      "Ġà¤¸à¤²à¤µ": 5621,
      "Ġà¤ıà¤¨à¤ıà¤¸": 5622,
      "à¥¦à¥¦à¥¦à¥¦": 5623,
      "Ġà¤Ĺà¤£à¤ªà¤¤": 5624,
      "Ġcolumn": 5625,
      "à¤¹à¤¸à¤ª": 5626,
      "ĠPermissions": 5627,
      "Ġà¤Ĺà¤²à¤¤à¤«à¤¹à¤®": 5628,
      "Ġà¤ªà¤¥à¤ª": 5629,
      "Ġ{@}": 5630,
      "Ġà¥§à¥¯à¥§à¥": 5631,
      "Ġ140": 5632,
      "ĠOM": 5633,
      "à¥¬à¥¦": 5634,
      "ach": 5635,
      "Ġ280": 5636,
      "Ġà¥§à¥¯à¥¯à¥®": 5637,
      "ĠïĤ§": 5638,
      "MMAND": 5639,
      "CR": 5640,
      "File": 5641,
      "Giver": 5642,
      "HO": 5643,
      "gov": 5644,
      "gree": 5645,
      "ns": 5646,
      "way": 5647,
      "à¥Ģà¥į": 5648,
      "à¥Ģà¤¼": 5649,
      "à¥ģ/": 5650,
      "Ġà¤µà¤¨à¤µ": 5651,
      "à¤ŁCity": 5652,
      "à¤£à¤¶": 5653,
      "à¤£à¤®à¤¯": 5654,
      "Ġà¤ĩà¤ķà¤²": 5655,
      "Ġà¤¹à¤®à¤¦à¤°": 5656,
      "à¤Ľà¤ķ": 5657,
      "Ġà¤Ĳà¤®": 5658,
      "Ġà¤ĺà¤°à¤¬": 5659,
      "Ġ1911": 5660,
      "Ġ1916": 5661,
      "Ġ1906": 5662,
      "à¥ĭà¥¤-": 5663,
      "Ġà¤¢à¤²à¤µ": 5664,
      "angu": 5665,
      "à¤¹à¤®à¤ĸ": 5666,
      "ĠStr": 5667,
      "Ġà¤ķà¤Łà¤µ": 5668,
      "Ġà¤ĩà¤ķà¤¬": 5669,
      "âĢĿ.": 5670,
      "Ġprocess": 5671,
      "omin": 5672,
      "à¤¿.,": 5673,
      "raine": 5674,
      "à¥®à¥¦": 5675,
      "Ġà¥¨à¥¦à¥¦à¥§": 5676,
      "Ġlist": 5677,
      "à¥¯à¥®": 5678,
      "Ġà¤ĸà¤°à¤ªà¤¤à¤µ": 5679,
      "wo": 5680,
      "à¤¾âĢĿà¥¤": 5681,
      "Ġà¤ķà¤¨à¤ķ": 5682,
      "à¤¨à¤Ń": 5683,
      "à¤²Name": 5684,
      "Ġà¤ľà¤ķ": 5685,
      "Ġà¤°à¤®à¤ľ": 5686,
      "à¤¡à¤¹": 5687,
      "Ġà¤ĩà¤°à¤¶": 5688,
      "Ġà¤Ĺà¤¬": 5689,
      "à¤łà¤¸": 5690,
      "Ġà¤Ŀà¤²à¤ķà¤¤": 5691,
      "Ġsee": 5692,
      "Ġ1910": 5693,
      "Ġ1907": 5694,
      "Ġaa": 5695,
      "ark": 5696,
      "Ġà¤ıà¤®à¤Ł": 5697,
      "Ġfrom": 5698,
      "ĠNational": 5699,
      "Ġ145": 5700,
      "ĠEn": 5701,
      "Ġà¥©à¥¨": 5702,
      "acter": 5703,
      "à¤ĳà¤°": 5704,
      "iga": 5705,
      "ypes": 5706,
      "nder": 5707,
      "ÃīÃ": 5708,
      "ĠSOCK": 5709,
      "ĠMSN": 5710,
      "ĠEmpathy": 5711,
      "ĠSOCKS": 5712,
      "/.": 5713,
      "ead": 5714,
      "à¥ŀ": 5715,
      "à¤°à¤§à¤¨": 5716,
      "à¤¸à¤¹à¤ķ": 5717,
      "Ġà¤¹à¤¨à¤¨": 5718,
      "à¤®à¤¬à¤¤": 5719,
      "Ġà¤¬à¤ľà¤¨": 5720,
      "Ġà¤ļà¤ķà¤¤": 5721,
      "à¤Ĩà¤°à¤ľ": 5722,
      "à¤Ĺà¤°à¤¦": 5723,
      "à¤®à¤¨à¤Ĺà¤°": 5724,
      "à¤ıà¤¸à¤ıà¤¨à¤ıà¤²": 5725,
      "Ġ720": 5726,
      "à¤°à¤Ĺà¤Ł": 5727,
      "ĠIN": 5728,
      "Ġà¤¤à¤¨à¤ĸ": 5729,
      "ĠRSA": 5730,
      "Ġlz": 5731,
      "cript": 5732,
      "Ġà¤Ŀà¤ķà¤Ŀ": 5733,
      "change": 5734,
      "Ch": 5735,
      "Receiv": 5736,
      "ele": 5737,
      "file": 5738,
      "gin": 5739,
      "uador": 5740,
      "à¥įà¥¤": 5741,
      "à¥įà¤ĥ": 5742,
      "à¥ĢâĢĵ": 5743,
      "à¥ĭ\"": 5744,
      "à¤¹à¤ľà¤¨à¤ķ": 5745,
      "à¤µà¤Ĺà¤¤": 5746,
      "Ġà¤¤à¤¸à¤µ": 5747,
      "Ġà¤¦à¤ĸ": 5748,
      "à¤ļà¤¦": 5749,
      "Ġà¤ıà¤¨à¤°": 5750,
      "à¤°à¤¦à¤°à¤¹": 5751,
      "Ġà¤ĵà¤¹à¤¦": 5752,
      "à¤Ĺà¤²à¤ª": 5753,
      "à¤ķà¤Łà¤Ĺ": 5754,
      "Ġà¤ıà¤¨à¤¬": 5755,
      "Ġ''à¥¤": 5756,
      "à¥Īà¤Ĥ)à¥¤": 5757,
      "à¤ªà¤¦à¤£": 5758,
      "://..": 5759,
      "Ġma": 5760,
      "email": 5761,
      "1949": 5762,
      "Ġà¥§à¥¯à¥®à¥¦": 5763,
      "ailab": 5764,
      "ĠCOMMAND": 5765,
      "Ġlib": 5766,
      "ĠAllow": 5767,
      "Receiver": 5768,
      "ĠAllowance": 5769,
      "AO": 5770,
      "For": 5771,
      "wh": 5772,
      "Ġà¤¾": 5773,
      "à¤¹à¤®à¤¸": 5774,
      "à¤²à¤Ĺà¤¤": 5775,
      "à¤ªà¤®à¤¤": 5776,
      "Ġà¤¬à¤Ĺà¤¦": 5777,
      "Ġà¤²à¤Ļ": 5778,
      "à¤ıà¤¬à¤²": 5779,
      "à¤Ńà¤¸": 5780,
      "Ġà¤ĸà¤¤à¤®": 5781,
      "à¤ĩà¤ļ": 5782,
      "à¤ªà¤°à¤°": 5783,
      "à¤·à¤£à¤¤": 5784,
      "Ġà¤Ĩà¤°à¤ıà¤¸à¤ıà¤¸": 5785,
      "ons": 5786,
      "Ġà¤ªà¤ķà¤µ": 5787,
      "à¤Ĩà¤°à¤ª": 5788,
      "Ġ83": 5789,
      "Ġà¤¹à¤ľà¤°à¤¤": 5790,
      "Ġà¤¤à¤²à¤Ľà¤Ł": 5791,
      "ĠMeeting": 5792,
      "Ġgov": 5793,
      "Ġ243": 5794,
      "ATE": 5795,
      "1946": 5796,
      "Ġà¤¦à¤®à¤¨à¤ķ": 5797,
      "span": 5798,
      "----------------": 5799,
      "lish": 5800,
      "ailable": 5801,
      ")\"": 5802,
      ")'": 5803,
      ",,": 5804,
      "US": 5805,
      "xiii": 5806,
      "à¥Ģà¥ĩà¤Ĥ": 5807,
      "à¤²à¤ĵ": 5808,
      "à¤µà¤ªà¤°": 5809,
      "à¥ĩà¤ĤâĢĿ": 5810,
      "à¤ľà¤Ĺà¤¤": 5811,
      "à¤ıà¤¨à¤¤": 5812,
      "Ġà¤ĩà¤¡": 5813,
      "à¤µà¤°à¤ª": 5814,
      "Ġà¤¨à¤µà¤¦": 5815,
      "à¤Ĩà¤Īà¤ıà¤®": 5816,
      "orld": 5817,
      "à¤°à¤ļà¤£": 5818,
      "ĠSee": 5819,
      "à¤ıà¤²à¤ª": 5820,
      "olog": 5821,
      "Ġbet": 5822,
      "raw": 5823,
      "ĠZà¤¸": 5824,
      "ages": 5825,
      "ĠÂ°": 5826,
      "Ġstart": 5827,
      "Ġà¤·à¤¡à¤¯": 5828,
      "form": 5829,
      "ITY": 5830,
      "oller": 5831,
      "800": 5832,
      "IR": 5833,
      "Type": 5834,
      "dl": 5835,
      "kiga": 5836,
      "sl": 5837,
      "the": 5838,
      "}%": 5839,
      "Ġà¤®à¤²à¤¬": 5840,
      "à¤¦à¤°à¤®": 5841,
      "Ġà¤ľà¤¸à¤µ": 5842,
      "à¤ĩà¤¥": 5843,
      "à¤ľà¤¨à¤¤": 5844,
      "Ġà¤ªà¤¡à¤¨": 5845,
      "Ġà¤¢à¤ķà¤¨": 5846,
      "à¤¯à¤²à¤°": 5847,
      "its": 5848,
      "Ġ%.": 5849,
      "Ġchar": 5850,
      "ĠTO": 5851,
      "oun": 5852,
      "Ġ206": 5853,
      "acity": 5854,
      "ĠZà¤¥": 5855,
      "ING": 5856,
      "1989": 5857,
      "ustom": 5858,
      "ample": 5859,
      "CHAN": 5860,
      "plain": 5861,
      "Ġedu": 5862,
      "83": 5863,
      ";}": 5864,
      "par": 5865,
      "à¤ķà¤·": 5866,
      "à¥Ĥ/": 5867,
      "Ġà¤¶à¤®à¤¨": 5868,
      "à¤Ĩà¤°à¤¬": 5869,
      "à¤Ĩà¤µà¤¶": 5870,
      "à¤ľà¤¨à¤ľ": 5871,
      "à¤Ŀà¤°": 5872,
      "Ġà¤ĵà¤ıà¤¸": 5873,
      "à¤Łà¤¨à¤®": 5874,
      "à¤Ĳà¤ķ": 5875,
      "ines": 5876,
      "à¤Ķà¤²": 5877,
      "ank": 5878,
      "itor": 5879,
      "à¤Ĩà¤Īà¤ĵ": 5880,
      "Ġà¤ıà¤¸à¤ıà¤®à¤Ī": 5881,
      "à¤ıà¤«à¤Ł": 5882,
      "Ġpi": 5883,
      "à¤²à¤Ńà¤Ń": 5884,
      "ivers": 5885,
      "Ġà¥ªà¥«": 5886,
      "efore": 5887,
      "Ġà¤įà¤«": 5888,
      "à¤ıà¤®à¤ıà¤¸à¤ıà¤®à¤Ī": 5889,
      "700": 5890,
      "CD": 5891,
      "QShortcut": 5892,
      "Ġetc": 5893,
      "à¥ĩ..": 5894,
      "à¤¸Name": 5895,
      "Ġà¤ªà¤¸à¤²": 5896,
      "à¤¦à¤°à¤¦": 5897,
      "Ġà¤īà¤¬à¤²": 5898,
      "à¥ĭà¤ĤâĢĻ": 5899,
      "à¤¡à¤°à¤¸": 5900,
      "à¤Ńà¤Ł": 5901,
      "Ġà¤ıà¤²à¤¨": 5902,
      "Ġà¤ıà¤ķà¤®à¤¤": 5903,
      "à¤¤à¤°à¤®": 5904,
      "Ġà¤īà¤ªà¤¬à¤¨": 5905,
      "Ġà¤ħà¤²à¤µà¤°": 5906,
      "Ġà¤¸à¤¹à¤¬à¤¦": 5907,
      "à¤°à¤¸à¤®": 5908,
      "Ġà¤ĵà¤¨": 5909,
      "Ġà¤ĵà¤¤": 5910,
      "Ġà¤ªà¤¦à¤µ": 5911,
      "Ġthere": 5912,
      "à¤ĭà¤ķ": 5913,
      "arc": 5914,
      "ĠIBM": 5915,
      "à¤²à¤Ńà¤¤": 5916,
      "Ġmore": 5917,
      "Ġà¤Ĩà¤¹à¤Ł": 5918,
      "à¥§à¥¯à¥®": 5919,
      "conf": 5920,
      "Ġà¤®à¤¸à¤¨à¤¦": 5921,
      "anguage": 5922,
      "-\\\\": 5923,
      "POS": 5924,
      "put": 5925,
      "text": 5926,
      "ween": 5927,
      "wrap": 5928,
      "yth": 5929,
      "à¤¾à¥Ī": 5930,
      "à¤®à¤ıà¤¸": 5931,
      "à¤¼à¥Ĥà¤Ĥ": 5932,
      "Ġà¤ĸà¤¸à¤°": 5933,
      "à¤ĩà¤«à¤°": 5934,
      "à¥Ī....": 5935,
      "à¤µà¤¨à¤ļà¤°": 5936,
      "à¤ħà¤¸à¤®": 5937,
      "Ġà¤ĵà¤µ": 5938,
      "à¥ĭ,âĢĵ": 5939,
      "Ġà¤¹à¤°à¤¬": 5940,
      "à¤ĩà¤²à¤¸": 5941,
      "à¥Ī)?": 5942,
      "ranjan": 5943,
      "à¤ıà¤®à¤ľ": 5944,
      "ĠIATA": 5945,
      "Ġfil": 5946,
      "Ġ142": 5947,
      "Ġà¤ıà¤«à¤¡": 5948,
      "ĠOS": 5949,
      "Ġà¤Ĩà¤īà¤Łà¤¬": 5950,
      "urtle": 5951,
      "lim": 5952,
      "odif": 5953,
      "ĠKolab": 5954,
      "EM": 5955,
      "TAB": 5956,
      "ral": 5957,
      "Ġà¤¸à¤ĺ": 5958,
      "à¤®à¤¯à¤¤": 5959,
      "à¤Ĺà¤®à¤ķ": 5960,
      "à¥ĩà¤Ĥà¤ĥ%": 5961,
      "à¤¶à¤ļ": 5962,
      "Ġà¤ķà¤°à¤µà¤Ł": 5963,
      "à¤ļà¤Ĺ": 5964,
      "à¤ļà¤Ł": 5965,
      "Ġà¤ĩà¤ĭà¤°": 5966,
      "Ġà¤Ĺà¤¹à¤¨à¤¤": 5967,
      "Ġà¤ıà¤¤": 5968,
      "Ġà¤ıà¤¯à¤°à¤µ": 5969,
      "Ġà¤«à¤¤à¤¹": 5970,
      "à¤Ĩà¤ł": 5971,
      "à¤Łà¤°à¤¶": 5972,
      "à¤īà¤ķ": 5973,
      "Ġà¤ħà¤ªà¤ĺ": 5974,
      "Ġsocial": 5975,
      "Ġ1909": 5976,
      "à¤°à¤¬à¤¤": 5977,
      "à¥ĩ--": 5978,
      "any": 5979,
      "à¤ıà¤¸à¤µ": 5980,
      "Ġà¤Ĩà¤Īà¤ıà¤®à¤Ī": 5981,
      "ica": 5982,
      "Ġà¤¸à¤²à¤¤à¤¨à¤¤": 5983,
      "ĠCity": 5984,
      "ĠSIP": 5985,
      "à¤°à¤Ĺà¤£": 5986,
      "arb": 5987,
      "Ġà¤ªà¤°à¤®à¤¹": 5988,
      "Ġ121": 5989,
      "Ġpng": 5990,
      "ĠNN": 5991,
      "Ġà¥¬à¥¬": 5992,
      "osp": 5993,
      "ĠÂ©": 5994,
      "Ġà¥¨à¥¦à¥§à¥¦": 5995,
      "viron": 5996,
      "Ġ0211": 5997,
      "Ġja": 5998,
      "Ġà¤ĸà¤Łà¤ĸà¤Ł": 5999,
      "Ġà¤°à¤£à¤ľ": 6000,
      "ribution": 6001,
      "urope": 6002,
      "utils": 6003,
      "white": 6004,
      ")?": 6005,
      ";.": 6006,
      "bar": 6007,
      "bania": 6008,
      "cy": 6009,
      "ds": 6010,
      "sm": 6011,
      "à¤ķà¤ªà¤¨": 6012,
      "à¤²à¤ªà¤¨": 6013,
      "à¤ªà¤ĸ": 6014,
      "à¤Ĺà¤ĺ": 6015,
      "Ġà¤īà¤¬à¤°à¤¨": 6016,
      "Ġà¤²à¤¹à¤¸": 6017,
      "à¤ľà¤ľ": 6018,
      "à¤¶à¤§": 6019,
      "à¤¬à¤¸à¤°": 6020,
      "Ġà¤Ĩà¤¶à¤¨": 6021,
      "Ġ(-": 6022,
      "à¤Īà¤ĵ": 6023,
      "Ġà¤¹à¤®à¤µ": 6024,
      "à¤¯à¤ķà¤ķ": 6025,
      "à¤²à¤¨à¤ķ": 6026,
      "Ġà¤¸à¤¹à¤ª": 6027,
      "à¤īà¤ªà¤ķ": 6028,
      "med": 6029,
      "à¤ĩà¤¨à¤®": 6030,
      "à¤¯à¤ªà¤°à¤ķ": 6031,
      "esult": 6032,
      "à¤°à¤ªà¤¦": 6033,
      "Ġà¤ħà¤°à¤¬à¤µ": 6034,
      "Ġ259": 6035,
      "ukraine": 6036,
      "Ġà¤Ńà¤Łà¤ķà¤ķà¤°": 6037,
      "Ġà¤®à¤Ĺà¤§": 6038,
      "à¤Ĩà¤īà¤Łà¤ª": 6039,
      "ĠâĻ": 6040,
      "Ġsetting": 6041,
      "vironment": 6042,
      "PS": 6043,
      "Play": 6044,
      "SE": 6045,
      "bu": 6046,
      "à¥Ľ": 6047,
      "à¤¯à¤ĸ": 6048,
      "à¤¸à¤Łà¤¨": 6049,
      "à¤²à¤ı": 6050,
      "Ġà¤ªà¤¯": 6051,
      "Ġà¤ľà¤³": 6052,
      "Ġà¤µà¤Ł": 6053,
      "à¤Łà¤°à¤®": 6054,
      "à¥Ģà¤Ĥ'": 6055,
      "Ġà¤ħà¤¨à¤ĭ": 6056,
      "Ġ\",": 6057,
      "à¤īà¤§": 6058,
      "à¤īà¤ļà¤°": 6059,
      "Ġà¤ħà¤ļà¤¯à¤¨": 6060,
      "Ġ1915": 6061,
      "à¤°à¤¹à¤®à¤¤": 6062,
      "Ġà¤ľà¤¨à¤ªà¤¦": 6063,
      "Ġà¤¸à¤ļà¤²": 6064,
      "ĠCl": 6065,
      "Ġà¤ıà¤¨à¤¡": 6066,
      "Ġ1885": 6067,
      "ĠASCII": 6068,
      "Ġcd": 6069,
      "à¤ıà¤¨à¤ıà¤«": 6070,
      "Ġbefore": 6071,
      "ute": 6072,
      "agu": 6073,
      "ocation": 6074,
      "Ġà¥®à¥¦": 6075,
      "Ġmanual": 6076,
      "Ġgradi": 6077,
      "nia": 6078,
      "Ġiv": 6079,
      "à¥ĩâĢĵ": 6080,
      "à¤ķà¤Łà¤ķ": 6081,
      "Ġà¤¸à¤¶": 6082,
      "à¤ĸà¤®à¤°": 6083,
      "à¤Ľà¤ªà¤Łà¤²": 6084,
      "Ġà¤µà¤¹à¤®": 6085,
      "à¤ĵà¤®": 6086,
      "Ġà¤Ľà¤®": 6087,
      "à¤ħà¤µà¤¸": 6088,
      "Ġ350": 6089,
      "tin": 6090,
      "Ġà¤ľà¤²à¤Ĺ": 6091,
      "Ġnumber": 6092,
      "à¤¶à¤¤à¤¯": 6093,
      "Ġdesktop": 6094,
      "à¤Ĩà¤Īà¤ľ": 6095,
      "à¤Ĩà¤Īà¤¬": 6096,
      "org": 6097,
      "gmail": 6098,
      "Ġ105": 6099,
      "Ġà¤¨à¤ľà¤°à¤¬": 6100,
      "ĠEl": 6101,
      "Ġhas": 6102,
      "Ġ260": 6103,
      "Ġ1872": 6104,
      "kturtle": 6105,
      "Ġlearn": 6106,
      "Ġlevel": 6107,
      "Ġdistribut": 6108,
      "translator": 6109,
      "Ġà¤ıà¤®à¤ĵà¤Īà¤ıà¤«": 6110,
      "Ġproperly": 6111,
      "Ġregions": 6112,
      "ricket": 6113,
      "IV": 6114,
      "WY": 6115,
      "ros": 6116,
      "à¥ĩà¤¿": 6117,
      "à¤¯à¤²à¤¯": 6118,
      "à¤¸à¤Łà¤°": 6119,
      "à¥Ī]": 6120,
      "Ġà¤µà¤¡": 6121,
      "à¤ľà¤«": 6122,
      "à¤·à¤ļ": 6123,
      "à¤Īà¤ıà¤®": 6124,
      "à¤Īà¤ĺà¤°": 6125,
      "à¤«à¤¸à¤²": 6126,
      "Ġà¤«à¤µ": 6127,
      "à¤²à¤¨à¤¸": 6128,
      "à¤µà¤¨à¤¦": 6129,
      "Ġà¤¸à¤¬à¤ªà¤°": 6130,
      "Ġà¤®à¤¨à¤ĺà¤¡": 6131,
      "tionary": 6132,
      "Ġac": 6133,
      "ĠâĢĺâĢĻ": 6134,
      "Ġà¤ıà¤¨à¤Īà¤ľ": 6135,
      "à¤®à¤ļà¤²": 6136,
      "Ġchan": 6137,
      "ĠMD": 6138,
      "à¤ıà¤¨à¤¯": 6139,
      "dist": 6140,
      "Ġà¥¨à¥¦à¥¦à¥¨": 6141,
      "à¥Ģ!\"": 6142,
      "etails": 6143,
      "Ġ368": 6144,
      "Ġà¥§à¥¯à¥¯à¥Ń": 6145,
      "ĠICAO": 6146,
      "isplay": 6147,
      "LongName": 6148,
      "DD": 6149,
      "FC": 6150,
      "Poss": 6151,
      "aut": 6152,
      "iran": 6153,
      "oint": 6154,
      "Ġuk": 6155,
      "Ġà¤Ļ": 6156,
      "à¤°à¤³": 6157,
      "à¥ĩà¥ĩ": 6158,
      "à¥įà¤ĥ-": 6159,
      "Ġà¤¹à¤¶": 6160,
      "à¤¹à¤µà¤°": 6161,
      "à¤µà¤¶à¤¤": 6162,
      "à¤¦à¤ĸà¤²": 6163,
      "à¤ªà¤µà¤°": 6164,
      "Ġà¤ľà¤ĭ": 6165,
      "à¥ĩà¤Ĥ]": 6166,
      "à¤Łà¤°à¤ķ": 6167,
      "à¤ŁName": 6168,
      "Ġà¤°à¤¤à¤¨": 6169,
      "à¤ıà¤¹à¤¦": 6170,
      "à¤§à¤¬": 6171,
      "Ġà¤Ĩà¤ĩà¤¯": 6172,
      "Ġà¤¯à¤¯": 6173,
      "Ġà¤¹à¤®à¤¸à¤°": 6174,
      "à¤¼à¤¾à¤ģ": 6175,
      "à¤ĵà¤µà¤°": 6176,
      "à¥Ī,)": 6177,
      "à¤Ĩà¤«à¤¤": 6178,
      "Ġà¤Ľà¤ľ": 6179,
      "Ġà¤Łà¤ķà¤¸": 6180,
      "à¥Ģà¥¤-": 6181,
      "Ġà¤īà¤¦à¤Ĺ": 6182,
      "tiv": 6183,
      "Ġà¤ľà¤Ĺà¤ľ": 6184,
      "Ġ#%": 6185,
      "ictionary": 6186,
      "à¤®à¤Ĺà¤¢": 6187,
      "ates": 6188,
      "à¤ıà¤®à¤ĵ": 6189,
      "à¤ļà¤ķà¤ª": 6190,
      "ĠIs": 6191,
      "à¤°à¤¥à¤®à¤¤": 6192,
      "Ġword": 6193,
      "Ġhope": 6194,
      "Ġà¥©à¥©": 6195,
      "Ġunder": 6196,
      "Ġ264": 6197,
      "1301": 6198,
      "Ġ276": 6199,
      "Ġà¤¶à¤¹à¤µà¤¤": 6200,
      "essive": 6201,
      "Ġradio": 6202,
      "Ġà¤®à¤¦à¤¯à¤¨à¤µ": 6203,
      "Ġsecurity": 6204,
      "ĠExchange": 6205,
      "à¤¬à¤¹à¤°à¤¹": 6206,
      "ungary": 6207,
      "Ġavailable": 6208,
      "Ġbetween": 6209,
      "POSE": 6210,
      "ĠNNTP": 6211,
      "'.": 6212,
      "Date": 6213,
      "})": 6214,
      "Ġ>": 6215,
      "Ġà¤ķà¤µà¤¯": 6216,
      "à¤ķà¤ªà¤°": 6217,
      "à¤Ĺà¤«": 6218,
      "Ġà¤¬à¤°à¤¸à¤¨": 6219,
      "Ġà¤¬à¥Ŀ": 6220,
      "à¤ľà¤¶à¤¬": 6221,
      "à¤¶à¤µà¤¸": 6222,
      "à¥Īà¤ĤâĢĿà¥¤": 6223,
      "à¤ĩà¤¥à¤¨": 6224,
      "Ġà¤¡à¤²à¤¹": 6225,
      "à¤¬à¤°à¤²": 6226,
      "à¤¨à¤ķà¤¦": 6227,
      "à¤°à¤¬à¤²à¤¤": 6228,
      "à¤ĩà¤Łà¤²": 6229,
      "Ġdetails": 6230,
      "Ġka": 6231,
      "Ġà¤ıà¤¸à¤ıà¤®à¤ıà¤¸": 6232,
      "à¤¼à¥ĩà¤Ĥà¤ĥ": 6233,
      "Ġà¤ķà¤Łà¤ķà¤°": 6234,
      "Ġà¤ıà¤®à¤¬": 6235,
      "Ġ158": 6236,
      "rajeshkajha": 6237,
      "ecuador": 6238,
      "Ġurl": 6239,
      "ĠZà¤¹": 6240,
      "ĠWAR": 6241,
      "Ġà¥ªà¥®": 6242,
      "Ġà¥§à¥«à¥Ń": 6243,
      "Ġ`.": 6244,
      "MAIN": 6245,
      "1974": 6246,
      "1963": 6247,
      "Ġà¤īà¤Ľà¤²à¤¤": 6248,
      "UTF": 6249,
      "Ġkeyword": 6250,
      "Possessive": 6251,
      "NESS": 6252,
      "SR": 6253,
      "mand": 6254,
      "rite": 6255,
      "seek": 6256,
      "à¤¨à¤¸à¤°": 6257,
      "à¤ķName": 6258,
      "à¤¹à¤¹": 6259,
      "Ġà¤®à¤¯à¤¸": 6260,
      "à¤Ĺà¤ľà¤¨à¤ķ": 6261,
      "Ġà¤ľà¤¯à¤¶": 6262,
      "Ġà¤Ĩà¤¥": 6263,
      "Ġà¤Ĺà¤Ĺà¤¨": 6264,
      "Ġà¤¶à¤°à¤®": 6265,
      "Ġà¤¡à¤²": 6266,
      "Ġà¤§à¤°à¤¨": 6267,
      "Ġà¤°à¤¸à¤¦": 6268,
      "Ġà¤ħà¤ªà¤Ń": 6269,
      "Ġsao": 6270,
      "Ġà¤¬à¤°à¤Ĺà¤¦": 6271,
      "Ġtypes": 6272,
      "à¤Ĩà¤Īà¤Ĩà¤Ī": 6273,
      "ĠCal": 6274,
      "ĠSec": 6275,
      "ranty": 6276,
      "ĠIt": 6277,
      "Ġà¤¤à¤²à¤¹à¤Ł": 6278,
      "ĠMER": 6279,
      "ĠPUR": 6280,
      "ĠPART": 6281,
      "à¤ıà¤«à¤¡": 6282,
      "ĠFIT": 6283,
      "Ġ147": 6284,
      "ĠEOL": 6285,
      "à¤°à¤«à¤¤": 6286,
      "Ġà¤¬à¤ķà¤¬à¤ķ": 6287,
      "ĠWIT": 6288,
      "ations": 6289,
      "Ġrules": 6290,
      "RANTY": 6291,
      "ILITY": 6292,
      "endar": 6293,
      "ICUL": 6294,
      "Ġeven": 6295,
      "Ġuseful": 6296,
      "assword": 6297,
      "Ġwarranty": 6298,
      "Admin": 6299,
      "DAV": 6300,
      "ĠANY": 6301,
      "Ġimplied": 6302,
      "HOUT": 6303,
      "ĠStreet": 6304,
      "Ġcharacter": 6305,
      "CHANTAB": 6306,
      "ython": 6307,
      "ĠElm": 6308,
      "Ġdistributed": 6309,
      "ĠWARRANTY": 6310,
      "ĠMERCHANTAB": 6311,
      "ĠPURPOSE": 6312,
      "ĠPARTICUL": 6313,
      "ĠFITNESS": 6314,
      "ĠWITHOUT": 6315,
      "ĠMERCHANTABILITY": 6316,
      "ĠPARTICULAR": 6317,
      "AS": 6318,
      "EP": 6319,
      "GB": 6320,
      "LO": 6321,
      "cra": 6322,
      "gr": 6323,
      "oom": 6324,
      "Ġerror": 6325,
      "à¥ĩâĢĿà¥¤": 6326,
      "à¤¤à¤ĵ": 6327,
      "à¤¤à¤Ĩ": 6328,
      "à¤¯à¤§à¤°": 6329,
      "Ġà¤¹à¤¯": 6330,
      "à¤²à¤¤à¤°": 6331,
      "à¤²City": 6332,
      "à¤ªà¤¦à¤¨": 6333,
      "Ġà¤µà¤¸à¤²": 6334,
      "Ġà¤¬à¤¬": 6335,
      "Ġà¤¬à¤°à¤¹": 6336,
      "Ġà¤¦à¤°à¤¯": 6337,
      "à¤¡Name": 6338,
      "à¤ĸà¤¯": 6339,
      "à¥Īà¤ĤâĢĿ": 6340,
      "Ġà¤ĸà¤ª": 6341,
      "à¤łà¤ª": 6342,
      "à¤Ŀà¤¬": 6343,
      "Ġà¤ħà¤µà¤Ł": 6344,
      "à¤ħà¤®à¤²": 6345,
      "à¤¨à¤ķà¤®": 6346,
      "à¤¦à¤°à¤¬": 6347,
      "à¤¦à¤°à¤µà¤¨": 6348,
      "à¤¾.)": 6349,
      "Ġà¤ħà¤ªà¤¦à¤¸": 6350,
      "Ġsu": 6351,
      "Ġsoftware": 6352,
      "Ġ1901": 6353,
      "à¥ĩà¤Ĥ,âĢĵ": 6354,
      "Ġdefault": 6355,
      "Ġ750": 6356,
      "iià¤ķ": 6357,
      "Ġ154": 6358,
      "Ġmm": 6359,
      "à¥Ńà¥¦": 6360,
      "ĠNameMeeting": 6361,
      "ricts": 6362,
      "Ġà¥¯à¥¦": 6363,
      "ideo": 6364,
      "load": 6365,
      "Ġdistricts": 6366,
      "libgnomeui": 6367,
      "%,": 6368,
      "Sp": 6369,
      "Script": 6370,
      "You": 6371,
      "ies": 6372,
      "no": 6373,
      "à¤°à¤ªà¤¨": 6374,
      "à¤°à¤Ĺà¤®": 6375,
      "à¤°à¤ľà¤¨à¤ķ": 6376,
      "à¤°weather": 6377,
      "à¤¨à¤¹à¤¸": 6378,
      "à¤ķà¤¸à¤¨": 6379,
      "à¤®à¤ł": 6380,
      "à¤®à¤¸à¤®": 6381,
      "Ġà¤ªà¤ĸ": 6382,
      "à¤ıà¤²à¤¸": 6383,
      "Ġà¤¯à¤µà¤¨": 6384,
      "à¤¡à¤¹à¤°": 6385,
      "à¤¡à¤¬à¤°": 6386,
      "à¤¡à¤°à¤¸à¤¨": 6387,
      "Ġà¤ĩà¤¦à¤°": 6388,
      "Ġà¤ıà¤ħà¤°": 6389,
      "à¤Ŀà¤Ł": 6390,
      "Ġà¤ĩà¤¨à¤«": 6391,
      "à¤¾.-": 6392,
      "à¤¯à¤µà¤ķ": 6393,
      "à¤¤à¤ķà¤¥": 6394,
      "à¤°à¤¬à¤¦à¤²": 6395,
      "Ġà¤ķà¤²à¤¹": 6396,
      "Ġnew": 6397,
      "à¥ĭ),": 6398,
      "alsa": 6399,
      "Ġam": 6400,
      "Ġcdr": 6401,
      "Ġcoun": 6402,
      "Ġprogram": 6403,
      "Ġ155": 6404,
      "Ġ123": 6405,
      "ĠRep": 6406,
      "ĠUSA": 6407,
      "Ġà¤Ĩà¤īà¤Łà¤¸": 6408,
      "Ġ239": 6409,
      "Ġà¤ĸà¤¨à¤ĸà¤¨": 6410,
      "à¤įà¤«": 6411,
      "à¤ħà¤ķà¤¬à¤°": 6412,
      "Ġà¥§à¥¯à¥¯à¥§": 6413,
      "Ġ1883": 6414,
      "Ġà¤ªà¤£à¤§": 6415,
      "ains": 6416,
      "à¤ıà¤¸à¤ıà¤²à¤µ": 6417,
      "ShortName": 6418,
      "strong": 6419,
      "uration": 6420,
      "Ġà¤łà¤¹à¤°à¤¤": 6421,
      "ominic": 6422,
      "Ġcounties": 6423,
      "./": 6424,
      "AM": 6425,
      "Sec": 6426,
      "View": 6427,
      "co": 6428,
      "yy": 6429,
      "à¤°à¤Ĺà¤²": 6430,
      "à¤¿...": 6431,
      "à¤¨Name": 6432,
      "à¤¸à¤§": 6433,
      "à¤²à¤ļà¤¨": 6434,
      "Ġà¤ªà¤ĸà¤µ": 6435,
      "à¤ıà¤Ĩà¤Ī": 6436,
      "à¤µà¤¨à¤°": 6437,
      "Ġà¤Īà¤²": 6438,
      "Ġsource": 6439,
      "Ġ1900": 6440,
      "Ġà¤®à¤¨à¤¨": 6441,
      "à¤²à¤¬à¤²": 6442,
      "Ġà¤ľà¤²à¤¸à¤¨": 6443,
      "Ġnl": 6444,
      "Ġà¤ħà¤®à¤°à¤ķ": 6445,
      "Ġtwo": 6446,
      "Ġà¤ıà¤¨à¤Ł": 6447,
      "Ġà¤¦à¤²à¤¹à¤¨": 6448,
      "Ġ108": 6449,
      "ĠReceiv": 6450,
      "raviratlami": 6451,
      "ĠEv": 6452,
      "eld": 6453,
      "Ġhai": 6454,
      "2022": 6455,
      "à¤ıà¤ļà¤Ł": 6456,
      "à¤¸à¤®à¤Ŀà¤¨": 6457,
      "III": 6458,
      "Ġ1854": 6459,
      "epart": 6460,
      "Ġrepublic": 6461,
      "HTML": 6462,
      "seeker": 6463,
      "ominican": 6464,
      "::": 6465,
      "LA": 6466,
      "VI": 6467,
      "eal": 6468,
      "gi": 6469,
      "nown": 6470,
      "thi": 6471,
      "Ġ^": 6472,
      "à¤°à¤ĸà¤¨": 6473,
      "à¤¸à¤²à¤¨": 6474,
      "à¤²à¤¬à¤°": 6475,
      "Ġà¤ªà¤ŀ": 6476,
      "Ġà¤ªà¤ªà¤¡": 6477,
      "à¤Ĺà¤¨à¤²": 6478,
      "Ġà¤ħà¤¹à¤°": 6479,
      "Ġà¤ħà¤¥à¤°": 6480,
      "Ġà¤ļà¤£": 6481,
      "Ġà¤ıà¤ķà¤¨": 6482,
      "Ġà¤ħà¤¨à¤µà¤°": 6483,
      "à¤°à¤®à¤ª": 6484,
      "Ġà¤ľà¤¬à¤²à¤ª": 6485,
      "à¥Ī.-": 6486,
      "à¤¸à¤°à¤¸": 6487,
      "Ġà¤¸à¤¹à¤ļà¤°": 6488,
      "à¤µà¤¨à¤¯": 6489,
      "à¤ĺà¤¸": 6490,
      "Ġà¤®à¤¨à¤ļ": 6491,
      "Ġà¤ľà¤¨à¤¶": 6492,
      "Ġà¤¢à¤²à¤¨": 6493,
      "à¤¿,âĢĵ": 6494,
      "Ġà¤Ĩà¤Īà¤Ĩà¤Īà¤Ł": 6495,
      "ĠSMS": 6496,
      "ĠTr": 6497,
      "Ġ2022": 6498,
      "Ġpage": 6499,
      "à¤°à¤ĸà¤£": 6500,
      "Ġmake": 6501,
      "ĠNet": 6502,
      "Ġhyp": 6503,
      "Ġlt": 6504,
      "ocal": 6505,
      "1993": 6506,
      "Ġà¥Ńà¥«": 6507,
      "ĠJSA": 6508,
      "Ġà¥§à¥¯à¥ªà¥Ń": 6509,
      "greece": 6510,
      "TR": 6511,
      "hungary": 6512,
      "port": 6513,
      "à¥ĩâĢĺ": 6514,
      "à¤¤à¤¹à¤¤": 6515,
      "à¥ĭ'": 6516,
      "à¤¹à¤¬à¤¦": 6517,
      "Ġà¤ľà¤¯à¤¸": 6518,
      "Ġà¤¬à¤°à¤®": 6519,
      "Ġà¤¬à¤ĺ": 6520,
      "à¤§à¤Ĺà¤®": 6521,
      "Ġà¤Ńà¤Ī": 6522,
      "Ġà¤Ĺà¤«": 6523,
      "Ġà¤ļà¤°à¤ķ": 6524,
      "à¤ģ!": 6525,
      "à¤ĩà¤ĸ": 6526,
      "à¤Ŀà¤Ĺà¤¡": 6527,
      "à¤ħà¤§à¤°": 6528,
      "Ġà¤ķà¤®à¤¬à¤ĸ": 6529,
      "à¤ĺà¤¨à¤ķ": 6530,
      "à¤¯à¤¨à¤ķ": 6531,
      "à¤®à¤ķà¤²": 6532,
      "à¤ķà¤²à¤®": 6533,
      "à¥Ĥà¤Ĥ-": 6534,
      "indi": 6535,
      "à¤µà¤ªà¤²": 6536,
      "ering": 6537,
      "à¤ıà¤®à¤¡": 6538,
      "Ġcopy": 6539,
      "Ġpar": 6540,
      "Ġ{}": 6541,
      "Ġbrack": 6542,
      "ĠFran": 6543,
      "Ġup": 6544,
      "Ġ226": 6545,
      "à¤ıà¤ļà¤ª": 6546,
      "à¤¸à¤¹à¤¯": 6547,
      "Ġ356": 6548,
      "Ġreceiv": 6549,
      "Ġà¥Ńà¥¦": 6550,
      "ector": 6551,
      "1970": 6552,
      "1986": 6553,
      "1964": 6554,
      "ialog": 6555,
      "irst": 6556,
      "tical": 6557,
      "Ġused": 6558,
      "tool": 6559,
      "ĠICQ": 6560,
      "ĠServerName": 6561,
      "ĠServerAdmin": 6562,
      "ribute": 6563,
      "DOMAIN": 6564,
      "arbon": 6565,
      "Ġ02110": 6566,
      "Ġbrackets": 6567,
      "-(": 6568,
      "MY": 6569,
      "String": 6570,
      "can": 6571,
      "card": 6572,
      "ez": 6573,
      "nam": 6574,
      "number": 6575,
      "ï¿½": 6576,
      "à¤¯à¤¸à¤²": 6577,
      "à¤¸à¤ļà¤°": 6578,
      "Ġà¤¸à¤µà¤°": 6579,
      "à¤²à¤Ī": 6580,
      "à¤²à¤¯à¤®": 6581,
      "Ġà¤¨à¤Łà¤°": 6582,
      "Ġà¤¦à¤°à¤ķ": 6583,
      "à¤¶à¤ķà¤°": 6584,
      "Ġà¤ĩà¤®à¤²": 6585,
      "Ġà¤ªà¤°à¤«": 6586,
      "Ġà¤¶à¤¦": 6587,
      "à¤Īà¤«": 6588,
      "Ġà¤¹à¤®à¤¬": 6589,
      "Ġà¤ħà¤¨à¤µ": 6590,
      "à¤Ĩà¤ªà¤®": 6591,
      "à¥Ī.)": 6592,
      "à¥Ī.?": 6593,
      "Ġà¤¸à¤¹à¤µ": 6594,
      "à¥ĩ,-": 6595,
      "Ġà¤ĵà¤ľà¤¸": 6596,
      "à¤īà¤ªà¤¸": 6597,
      "à¤Ĺà¤²à¤®": 6598,
      "à¤Ķà¤¦": 6599,
      "Ġtr": 6600,
      "Ġà¤Ĩà¤Īà¤¨": 6601,
      "Ġà¤ħà¤Ĺà¤£": 6602,
      "Ġà¤ħà¤¦à¤°à¤ķ": 6603,
      "Ġà¤ıà¤¨à¤Ĩà¤°": 6604,
      "let": 6605,
      "Ġ128": 6606,
      "set": 6607,
      "Ġhttps": 6608,
      "Ġ256": 6609,
      "Ġfree": 6610,
      "à¥®à¥«": 6611,
      "Ġconfig": 6612,
      "Ġà¤¤à¤¹à¤ĸ": 6613,
      "rich": 6614,
      "Ġ1890": 6615,
      "ĠQShortcut": 6616,
      "Ġà¤¬à¤°à¤«à¤¬": 6617,
      "9660": 6618,
      "redit": 6619,
      "UNT": 6620,
      "xxxxxxxx": 6621,
      "Ġafrica": 6622,
      "ĠJobseeker": 6623,
      "Ġdirectory": 6624,
      "':%": 6625,
      "Ass": 6626,
      "To": 6627,
      "à¤²à¤§à¤¨": 6628,
      "Ġà¤ħà¤¤à¤°à¤«à¤²à¤ķ": 6629,
      "Ġà¤²à¤Ľ": 6630,
      "à¤ľà¤ĸ": 6631,
      "à¤ıà¤ıà¤¸": 6632,
      "à¤§à¤Ń": 6633,
      "à¤Īà¤ķà¤²": 6634,
      "à¤Īà¤Ĩà¤°": 6635,
      "à¤°à¤¤à¤ķ": 6636,
      "à¤¾à¤Ĥ.": 6637,
      "à¤¾à¤ģ?": 6638,
      "Ġ\".": 6639,
      "à¤ħà¤Ł": 6640,
      "Ġà¤īà¤¦à¤¹": 6641,
      "Ġsend": 6642,
      "à¤°à¤¹à¤¸": 6643,
      "Ġà¤łà¤Ł": 6644,
      "à¤¾-\"": 6645,
      "Ġ323": 6646,
      "Ġà¤ķà¤²à¤°": 6647,
      "Ġà¤ĳà¥ŀ": 6648,
      "Ġà¤ħà¤ľà¤¯": 6649,
      "Ġterm": 6650,
      "Ġ450": 6651,
      "Ġà¤ĭà¤¸à¤ķ": 6652,
      "Ġdate": 6653,
      "Ġà¤ıà¤¸à¤ª": 6654,
      "Ġà¤ıà¤¸à¤¬": 6655,
      "à¤¿)à¥¤": 6656,
      "Ġà¤īà¤®à¤¦": 6657,
      "1950": 6658,
      "ĠAd": 6659,
      "à¤¹à¤²à¤¹": 6660,
      "ĠMarc": 6661,
      "ĠBains": 6662,
      "à¥©à¥¨": 6663,
      "right": 6664,
      "Ġà¤¬à¤®à¤¬": 6665,
      "Ġà¥¬à¥«": 6666,
      "Ġà¤¦à¤®à¤ķà¤¤": 6667,
      "aya": 6668,
      "Ġ1893": 6669,
      "1972": 6670,
      "1961": 6671,
      "Ġalong": 6672,
      "Ġplugin": 6673,
      "record": 6674,
      "ohn": 6675,
      "Ġcdrecord": 6676,
      "ĠReceive": 6677,
      "ĠMarcus": 6678,
      "bel": 6679,
      "Ġlabel": 6680,
      "à¤ķà¤Ŀ": 6681,
      "Ġà¤®à¤Łà¤ķ": 6682,
      "à¤µà¤¯à¤ķ": 6683,
      "Ġà¤¨à¤ĸà¤²": 6684,
      "à¤¼/": 6685,
      "à¤¼à¤¼": 6686,
      "à¤Łà¤¸à¤¨": 6687,
      "Ġà¤Ĩà¤¡à¤®": 6688,
      "à¤¡à¤ªà¤®": 6689,
      "Ġà¤ĩà¤ķà¤°": 6690,
      "Ġà¤ıà¤¤à¤¦": 6691,
      "à¤Īà¤¤": 6692,
      "Ġà¤¥à¤ķà¤¨": 6693,
      "à¤«à¤¬": 6694,
      "à¤¾à¤Ĥ)": 6695,
      "Ġà¤īà¤ªà¤ķà¤²": 6696,
      "à¤Ĩà¤Ł": 6697,
      "à¤ªà¤°à¤µà¤°": 6698,
      "à¤ħà¤²à¤¬": 6699,
      "à¤°à¤µà¤²": 6700,
      "Ġà¤¸à¤°à¤¹à¤¦": 6701,
      "à¤¾..": 6702,
      "Ġà¤ĭà¤¸à¤®": 6703,
      "Ġ<%": 6704,
      "Ġà¤¦à¤²à¤ªà¤¤à¤°": 6705,
      "Ġà¤ıà¤®à¤ıà¤®à¤ª": 6706,
      "ĠMy": 6707,
      "outh": 6708,
      "à¤ħà¤ªà¤®": 6709,
      "ĠGL": 6710,
      "Ġà¤ªà¤¨à¤¬": 6711,
      "Ġ136": 6712,
      "Ġà¥©à¥¬": 6713,
      "viet": 6714,
      "Ġà¤·à¤·": 6715,
      "Ġà¤ıà¤¯à¤°à¤ª": 6716,
      "Ġà¥¦à¥¦": 6717,
      "Ġà¥§à¥®à¥ª": 6718,
      "ĠConn": 6719,
      "Ġ1891": 6720,
      "Ġstate": 6721,
      "Ġà¤ķà¤ªà¤Łà¤ª": 6722,
      "hell": 6723,
      "amaica": 6724,
      "entina": 6725,
      "250": 6726,
      "Bus": 6727,
      "Description": 6728,
      "XX": 6729,
      "dev": 6730,
      "fs": 6731,
      "ià¤ķ": 6732,
      "ne": 6733,
      "nor": 6734,
      "oice": 6735,
      "page": 6736,
      "ux": 6737,
      "ÅĪ": 6738,
      "à¤¾à¥ģ": 6739,
      "à¥ĩ]": 6740,
      "à¥Ģ:-": 6741,
      "à¤¯à¤°à¤¹": 6742,
      "à¤¸à¤®à¤¤": 6743,
      "à¤®à¤°à¤ķ": 6744,
      "à¤®à¤¬à¤°": 6745,
      "à¤²à¤ļà¤°": 6746,
      "à¤Ĺà¤°à¤®": 6747,
      "Ġà¤µà¤¸à¤¨": 6748,
      "Ġà¤¨à¤ļ": 6749,
      "Ġà¤¤à¤¸à¤ķ": 6750,
      "à¤¬à¤°à¤®à¤¤": 6751,
      "Ġà¤Ĩà¤ĩà¤ª": 6752,
      "à¤£à¤¶à¤ķ": 6753,
      "à¤ĸà¤Ĺ": 6754,
      "à¤ĸà¤ªà¤¤": 6755,
      "Ġà¤ļà¤°à¤¨": 6756,
      "à¤ĩà¤¸à¤¨": 6757,
      "à¤¹à¤°à¤¨": 6758,
      "Ġà¤Ĩà¤¯à¤²": 6759,
      "Ġà¤ķà¤®à¤¸": 6760,
      "à¤°à¤µà¤§": 6761,
      "à¤®à¤²à¤ķ": 6762,
      "à¤¤à¤µà¤ª": 6763,
      "optic": 6764,
      "arg": 6765,
      "Ġ103": 6766,
      "Ġà¤®à¤¶à¤Ĺ": 6767,
      "à¤ĩà¤¡à¤¬": 6768,
      "à¤ıà¤¨à¤Ĩà¤Ī": 6769,
      "ĠLink": 6770,
      "Ġà¥©à¥¯": 6771,
      "Ġref": 6772,
      "Ġ1897": 6773,
      "Ġbegin": 6774,
      "ustral": 6775,
      "Ġany": 6776,
      "uthor": 6777,
      "à¥įà¤ĥâĢĵ": 6778,
      "Ġreceived": 6779,
      "à¤ħà¤²à¤¬à¤¤": 6780,
      "EC": 6781,
      "dominican": 6782,
      "les": 6783,
      "Ġall": 6784,
      "à¤®à¤¸à¤²": 6785,
      "Ġà¤®à¤¡": 6786,
      "Ġà¤¬à¤ľà¤°": 6787,
      "à¤¬à¤¯": 6788,
      "à¤§à¤µà¤¨": 6789,
      "à¤ļà¤¶": 6790,
      "Ġà¤Ĩà¤¬à¤¨": 6791,
      "Ġà¤¯à¤¶à¤¸": 6792,
      "à¤ĸà¤ľ": 6793,
      "Ġà¤ıà¤¸à¤ķ": 6794,
      "Ġà¤ĸà¤¸": 6795,
      "à¥Īà¥¤--": 6796,
      "Ġà¤ıà¤ķà¤¦": 6797,
      "Ġà¤¸à¤®à¤²": 6798,
      "Ġà¤¸à¤®à¤ª": 6799,
      "à¤Ľà¤¹": 6800,
      "à¥Į,": 6801,
      "Ġà¤Łà¤²à¤¤": 6802,
      "à¤°à¤¦à¤ķ": 6803,
      "à¤®à¤¤à¤²à¤¬": 6804,
      "à¤īà¤ªà¤°": 6805,
      "Ġà¤ªà¤¤à¤Ŀà¤¡": 6806,
      "à¤¾.%": 6807,
      "à¤Łà¤¨City": 6808,
      "à¤°à¤Ńà¤¦": 6809,
      "Ġshort": 6810,
      "Ġà¤Ĭà¤ļ": 6811,
      "Â¥ÂĮ": 6812,
      "Ġno": 6813,
      "à¤¯à¤ªà¤¦": 6814,
      "itain": 6815,
      "Ġkr": 6816,
      "Ġkao": 6817,
      "Ġà¤ıà¤¨à¤Ĩà¤Īà¤¸": 6818,
      "1908": 6819,
      "Ġ102": 6820,
      "Ġcl": 6821,
      "Ġ122": 6822,
      "Ġ129": 6823,
      "Ġ111": 6824,
      "ĠBcc": 6825,
      "ĠBost": 6826,
      "Ġmodif": 6827,
      "ĠUN": 6828,
      "à¥¨à¥ª": 6829,
      "Ġwrite": 6830,
      "eden": 6831,
      "Ġà¤Ĳà¤¤à¤¬": 6832,
      "Ġà¥«à¥©": 6833,
      "ada": 6834,
      "ask": 6835,
      "Ġrem": 6836,
      "tern": 6837,
      "ight": 6838,
      "ĠControl": 6839,
      "Ġ1858": 6840,
      "Ġanti": 6841,
      "iff": 6842,
      "Ġexample": 6843,
      "Ġevent": 6844,
      "OLD": 6845,
      "PRODUCTNAME": 6846,
      "dress": 6847,
      "eekday": 6848,
      "ĠSTART": 6849,
      "Ġà¤¸à¤ĺà¤¨à¤¤": 6850,
      "thiop": 6851,
      "ĠBoston": 6852,
      "df": 6853,
      "do": 6854,
      "pm": 6855,
      "res": 6856,
      "Ð¸": 6857,
      "à¥į:-": 6858,
      "à¤®à¤°à¤¤": 6859,
      "à¤²à¤µà¤°": 6860,
      "Ġà¤®à¤Łà¤®": 6861,
      "Ġà¤¤à¤µà¤ķ": 6862,
      "Ġà¤°à¤ľà¤µ": 6863,
      "à¤ıà¤ķà¤¤": 6864,
      "à¤ļà¤°à¤ķ": 6865,
      "Ġà¤ĩà¤¹à¤°": 6866,
      "à¤ĸà¤ļ": 6867,
      "Ġà¤ıà¤ķà¤¸à¤®": 6868,
      "à¤¾à¤Ĥ;": 6869,
      "à¤ĩà¤¯à¤¤": 6870,
      "à¤µà¤¨à¤Ĺà¤°": 6871,
      "à¤ħà¤¡": 6872,
      "Ġà¤ħà¤ļà¤°à¤ľ": 6873,
      "à¤°à¤¹à¤ª": 6874,
      "à¤°à¤¹à¤¸à¤¨": 6875,
      "Ġà¤®à¤¦à¤¹": 6876,
      "à¥ĭ)à¥¤": 6877,
      "Ġà¤®à¤°à¤ķà¤°": 6878,
      "ither": 6879,
      "à¤¸à¤¦à¤ķ": 6880,
      "à¤°à¤Ĺà¤®à¤¨": 6881,
      "Ġ109": 6882,
      "Ġà¤¦à¤¶à¤®": 6883,
      "Ġà¤ªà¤Łà¤¸à¤¨": 6884,
      "ĠGeneric": 6885,
      "Ġ134": 6886,
      "Ġeither": 6887,
      "utton": 6888,
      "Ġà¥©à¥ª": 6889,
      "Ġà¤īà¤Ńà¤°à¤ķà¤°": 6890,
      "Ġà¤ķà¤¤à¤°à¤¨": 6891,
      "1996": 6892,
      "ĠJava": 6893,
      "immed": 6894,
      "abled": 6895,
      "ocket": 6896,
      "uela": 6897,
      "britain": 6898,
      "nsdl": 6899,
      "ezuela": 6900,
      "-_": 6901,
      "flic": 6902,
      "Ġà¤ķà¤¸à¤¨": 6903,
      "Ġà¤ķà¤Łà¤¨": 6904,
      "à¥ĢâĢĶ": 6905,
      "à¥ĭ:": 6906,
      "à¤¯à¤¦à¤°": 6907,
      "Ġà¤¹à¤µà¤¸": 6908,
      "Ġà¤¬à¤¶": 6909,
      "Ġà¤¤à¤Ĺà¤¡": 6910,
      "à¤£à¤ķà¤°": 6911,
      "à¤Īà¤Ĩà¤ķ": 6912,
      "Ġà¤ĸà¤°à¤¨": 6913,
      "Ġà¤ĸà¤²à¤¬à¤²": 6914,
      "Ġà¤¥à¤ª": 6915,
      "Ġà¤¡à¤²à¤µ": 6916,
      "Ġà¤Ĳà¤¹": 6917,
      "Ġ119": 6918,
      "à¤Ĩà¤²à¤®": 6919,
      "à¤Ĩà¤ķà¤²à¤¨": 6920,
      "Ġà¤ħà¤²à¤°": 6921,
      "Ġà¤®à¤¹à¤ķ": 6922,
      "Â¤Âĺ": 6923,
      "Ġà¤Ŀà¤²": 6924,
      "Ġ1902": 6925,
      "à¤°à¤¹à¤ķà¤°": 6926,
      "Ġà¤ľà¤²à¤ķà¤°": 6927,
      "à¤¨à¤µà¤¶": 6928,
      "Ġà¤®à¤ľà¤®": 6929,
      "erb": 6930,
      "Ġtrans": 6931,
      "Ġ4000": 6932,
      "à¤ķà¤¸à¤°à¤¤": 6933,
      "albania": 6934,
      "ĠSc": 6935,
      "à¤ıà¤®à¤Ĩà¤Ī": 6936,
      "Â¥Âĩ-": 6937,
      "Ġ116": 6938,
      "Ġdoc": 6939,
      "ĠTLS": 6940,
      "ĠDev": 6941,
      "ĠFile": 6942,
      "ĠBOLD": 6943,
      "dire": 6944,
      "ĠEX": 6945,
      "Ġà¤ıà¤ļà¤¡": 6946,
      "Ġà¤ıà¤«à¤¸": 6947,
      "ĠOpen": 6948,
      "à¥¬à¥¨": 6949,
      "ech": 6950,
      "Ġ10000": 6951,
      "Ġà¤ķà¤ļà¤¹à¤°": 6952,
      "Ġà¤īà¤ªà¤ĸà¤£": 6953,
      "à¤ıà¤ļà¤ı": 6954,
      "Ġà¥§à¥®à¥«": 6955,
      "à¤¯à¤Ńà¤Ł": 6956,
      "Ġ1896": 6957,
      "Ġ1898": 6958,
      "1962": 6959,
      "ENT": 6960,
      "Ġevery": 6961,
      "ĠÃĤ": 6962,
      "Ġà¤ıà¤¨à¤ıà¤¸à¤Ĩà¤Īà¤¸": 6963,
      "formation": 6964,
      "thiopian": 6965,
      "DN": 6966,
      "ROR": 6967,
      "should": 6968,
      "Å£": 6969,
      "Ġ|": 6970,
      "Ġâĺº": 6971,
      "à¥ģà¤¾": 6972,
      "Ġà¤ªà¤²à¤¸": 6973,
      "à¥ĩà¤Ĥ!\"": 6974,
      "à¤ľà¤¤à¤¨": 6975,
      "Ġà¤°à¤¦à¤Ĺ": 6976,
      "à¤Ńà¤°à¤ķà¤®": 6977,
      "Ġà¤ıà¤¤à¤ķ": 6978,
      "Ġà¤¶à¤ķà¤°": 6979,
      "Ġà¤ĸà¤²à¤¨": 6980,
      "Ġà¤¥à¤ķà¤¤": 6981,
      "Ġà¤«à¤°à¤ķ": 6982,
      "Ġà¤ħà¤¨à¤¶": 6983,
      "Ġà¤ħà¤¨à¤Ĺà¤¢": 6984,
      "à¤ĩà¤Łà¤¨": 6985,
      "à¤°à¤£à¤µà¤¶": 6986,
      "à¤ĵà¤ķ": 6987,
      "à¤ĵà¤Ĩà¤Ī": 6988,
      "à¤ĵà¤Ĩà¤°": 6989,
      "Ġà¤īà¤ªà¤¸à¤®": 6990,
      "à¤¤à¤¨à¤ķ": 6991,
      "Ġ210": 6992,
      "à¥ĩ,\"": 6993,
      "à¤ļà¤¨à¤ľ": 6994,
      "à¤ĺà¤¦": 6995,
      "à¤¾).": 6996,
      "Ġ1903": 6997,
      "Ġ1904": 6998,
      "Ġ',": 6999,
      "Ġà¤ľà¤®à¤¶": 7000,
      "à¤Ĭà¤¤à¤ķ": 7001,
      "Ġà¤ĭà¤®": 7002,
      "ĠâĢĿ.": 7003,
      "open": 7004,
      "à¤¹à¤¤à¤°à¤®": 7005,
      "Ġ104": 7006,
      "à¤²à¤ķà¤°à¤¨": 7007,
      "ĠText": 7008,
      "à¤īà¤¨à¤ªà¤°": 7009,
      "ĠRem": 7010,
      "Ġ1600": 7011,
      "ĠNT": 7012,
      "ĠNo": 7013,
      "Ġà¤¤à¤Łà¤°à¤ķ": 7014,
      "Ġgas": 7015,
      "Ġgtk": 7016,
      "Ġhint": 7017,
      "utter": 7018,
      "à¥īà¤ģ,": 7019,
      "à¥Ńà¥®": 7020,
      "riend": 7021,
      "à¤ĳà¤ª": 7022,
      "Ġà¥¬à¥¨": 7023,
      "Ġà¤ķà¤£à¤Ńà¤°": 7024,
      "umb": 7025,
      "house": 7026,
      "Ġà¤Ĺà¤ľà¤Ł": 7027,
      "Ġ1889": 7028,
      "Ġ0114": 7029,
      "sert": 7030,
      "anced": 7031,
      "Ġmaildir": 7032,
      "ĠâĻª": 7033,
      "Al": 7034,
      "Level": 7035,
      "SH": 7036,
      "class": 7037,
      "edia": 7038,
      "pol": 7039,
      "}.": 7040,
      "Ġà¤¸à¤Īà¤¦": 7041,
      "Ġà¤®à¤°à¤¹à¤®": 7042,
      "à¤Ĺà¤¹à¤°": 7043,
      "Ġà¤ľà¤¶": 7044,
      "Ġà¤µà¤¦": 7045,
      "Ġà¤¨à¤¥": 7046,
      "Ġà¤¤à¤®à¤¸": 7047,
      "Ġà¤īà¤¹": 7048,
      "Ġà¤Ķà¤¶": 7049,
      "à¤¶à¤¶": 7050,
      "à¤¡à¤®à¤°": 7051,
      "Ġà¤Ĺà¤§à¤°": 7052,
      "à¥Īà¤Ĥ--": 7053,
      "Ġà¤¶à¤®à¤¶": 7054,
      "Ġà¤ıà¤ķà¤ªà¤ķ": 7055,
      "Ġà¤¹à¤®à¤ľ": 7056,
      "à¤ĵà¤¹": 7057,
      "à¤¾,?": 7058,
      "à¤¯à¤®à¤ķ": 7059,
      "à¥Ģ,âĢĵ": 7060,
      "à¤°à¤µà¤£à¤¤": 7061,
      "à¥Ĥà¤Ĥ;": 7062,
      "Ġà¤Ŀà¤ªà¤ķ": 7063,
      "à¥Ĥà¤ģ!": 7064,
      "Ġà¤ªà¤¦à¤®": 7065,
      "à¤¨à¤µà¤¸": 7066,
      "Ġà¤ıà¤¸à¤Ĩà¤°à¤Ĩà¤Ī": 7067,
      "ĠCP": 7068,
      "Ġ1850": 7069,
      "ata": 7070,
      "ature": 7071,
      "Ġà¤ĩà¤ķà¤¹à¤°": 7072,
      "Ġcount": 7073,
      "Ġ1100": 7074,
      "header": 7075,
      "Ġpub": 7076,
      "à¤ħà¤ªà¤¡": 7077,
      "ĠGroup": 7078,
      "Ġà¤ªà¤¨à¤ªà¤¨": 7079,
      "à¤²à¤ļà¤Ł": 7080,
      "à¥¯à¥¦": 7081,
      "INT": 7082,
      "Ġà¤·à¤Ł": 7083,
      "ape": 7084,
      "efin": 7085,
      "à¤īà¤ªà¤ĸ": 7086,
      "à¥¯à¥Ń": 7087,
      "ĠhOM": 7088,
      "lished": 7089,
      "venezuela": 7090,
      "ĠEnvironment": 7091,
      "Ġmodify": 7092,
      ".âĢĶ": 7093,
      "360": 7094,
      "Na": 7095,
      "aar": 7096,
      "cm": 7097,
      "europe": 7098,
      "imi": 7099,
      "jamaica": 7100,
      "à¤°à¤¬à¤°": 7101,
      "à¤Ĥà¥ĩ": 7102,
      "à¤¤à¤²à¤¨": 7103,
      "Ġà¤¸à¤¥": 7104,
      "à¤¹à¤²à¤¨": 7105,
      "à¥Ī'": 7106,
      "à¤µà¤£à¤ķ": 7107,
      "à¤ĹName": 7108,
      "Ġà¤¯à¤¶à¤µ": 7109,
      "Ġà¤Ńà¤°à¤ķà¤®": 7110,
      "Ġ(\\\\": 7111,
      "Ġà¤ıà¤²à¤¸": 7112,
      "à¥Īà¥¤.": 7113,
      "à¤ķà¤°à¤¦": 7114,
      "à¤ĩà¤²à¤¤": 7115,
      "à¤łà¤¯à¤ķ": 7116,
      "à¤Ĩà¤¯à¤¨": 7117,
      "à¤Ĩà¤ĩà¤¨": 7118,
      "à¤ľà¤¨à¤°": 7119,
      "à¤ľà¤¨à¤µà¤°": 7120,
      "Ġà¤Ľà¤ªà¤¨": 7121,
      "Ġà¤¤à¤ķà¤¦": 7122,
      "Â¤ÂĶ": 7123,
      "Ġse": 7124,
      "ane": 7125,
      "à¤¹à¤¨à¤¦": 7126,
      "Ġà¤®à¤°à¤ľ": 7127,
      "alse": 7128,
      "lat": 7129,
      "ĠCtrl": 7130,
      "oph": 7131,
      "abase": 7132,
      "Ġà¤¹à¤²à¤«à¤¨": 7133,
      "atabase": 7134,
      "1922": 7135,
      "Ġco": 7136,
      "ĠPH": 7137,
      "ĠDis": 7138,
      "ĠBCC": 7139,
      "Ġmd": 7140,
      "à¤ķà¤²à¤¨à¤ķà¤°": 7141,
      "Ġ170": 7142,
      "Ġà¥«à¥«": 7143,
      "ĠXlib": 7144,
      "Ġyear": 7145,
      "tres": 7146,
      "1998": 7147,
      "à¤īà¤ªà¤Ĺ": 7148,
      "Ġà¥§à¥¯à¥¯à¥«": 7149,
      "imal": 7150,
      "ĠSpam": 7151,
      "sweden": 7152,
      "ĠClutter": 7153,
      "Ġterms": 7154,
      "Ġpublished": 7155,
      "Disc": 7156,
      "Next": 7157,
      "uc": 7158,
      "à¤®à¤¸à¤¨": 7159,
      "à¤¦à¤°à¤µ": 7160,
      "Ġà¤°à¤®à¤¨": 7161,
      "à¤ıà¤ıà¤¨": 7162,
      "à¤·à¤Ń": 7163,
      "à¤·à¤®à¤²": 7164,
      "à¤ļà¤ķà¤¤": 7165,
      "Ġà¤Ńà¤¨à¤ķ": 7166,
      "Ġà¤ĩà¤®à¤¦": 7167,
      "Ġà¤Ĺà¤ľà¤¨": 7168,
      "Ġ(âĢľ": 7169,
      "à¤Īà¤Ī": 7170,
      "à¥Īà¥¤)": 7171,
      "Ġà¤¸à¤®à¤¦": 7172,
      "Ġà¤Ĩà¤ªà¤Ł": 7173,
      "à¤ªà¤¤à¤²": 7174,
      "à¤ħà¤µà¤°": 7175,
      "à¤¯à¤¨à¤°": 7176,
      "Ġà¤ħà¤¸à¤Ļ": 7177,
      "à¤Ĺà¤²à¤¸": 7178,
      "à¤¤à¤µà¤ķ": 7179,
      "Ġà¤ĳà¤µ": 7180,
      "à¤¨à¤µà¤µ": 7181,
      "Ġà¤ħà¤Ĺà¤µ": 7182,
      "Ġdescription": 7183,
      "Ġà¤ıà¤¸à¤¡": 7184,
      "ĠCou": 7185,
      "atal": 7186,
      "atch": 7187,
      "Ġcricket": 7188,
      "Ġpython": 7189,
      "Ġ[%": 7190,
      "Ġgconf": 7191,
      "Ġval": 7192,
      "Ġredist": 7193,
      "nglish": 7194,
      "ove": 7195,
      "Ġ1894": 7196,
      "layer": 7197,
      "Ġlater": 7198,
      "assin": 7199,
      "Ġà¥§à¥¯à¥«à¥¦": 7200,
      "Ġgradients": 7201,
      "Assassin": 7202,
      "ĠSpamAssassin": 7203,
      "Ġredistribute": 7204,
      ")(": 7205,
      "1000": 7206,
      "SP": 7207,
      "UE": 7208,
      "dao": 7209,
      "my": 7210,
      "ron": 7211,
      "rranjan": 7212,
      "Ġout": 7213,
      "à¥įà¥Ģ": 7214,
      "à¥ĭà¤ģ": 7215,
      "à¤¯à¤Ĺà¤¤": 7216,
      "à¤®à¤°à¤¸": 7217,
      "à¤ªà¤ªà¤¨": 7218,
      "à¤Ĺà¤ľà¤¨": 7219,
      "Ġà¤¨à¤µà¤¸": 7220,
      "Ġà¤¬à¤ķà¤¤": 7221,
      "Ġà¤¬à¤ķà¤¨": 7222,
      "à¤¼à¥Ģà¤Ĥ": 7223,
      "Ġà¤¦à¤ĭà¤°": 7224,
      "à¤ľà¤¯à¤ª": 7225,
      "à¤ļà¤¬": 7226,
      "à¥Īà¤ĤâĢĶ": 7227,
      "Ġà¤ļà¤¹à¤¤": 7228,
      "Ġà¤ļà¤°à¤¬": 7229,
      "à¤Ľà¤ª": 7230,
      "à¥ĥà¥į": 7231,
      "Ġà¤ħà¤¨à¤¶à¤¨": 7232,
      "à¤µà¤°à¤¸": 7233,
      "à¤°à¤®à¤ļ": 7234,
      "à¤īà¤«": 7235,
      "001": 7236,
      "à¤¾....": 7237,
      "Ġà¤ħà¤¸à¤Ń": 7238,
      "à¥Ĥà¤ģ;": 7239,
      "Ġà¤ħà¤ªà¤¶à¤¬": 7240,
      "Ġà¤ľà¤²à¤ķ": 7241,
      "anag": 7242,
      "Ġacc": 7243,
      "à¤¹à¤ķà¤®": 7244,
      "led": 7245,
      "Ġà¤®à¤¶à¤µ": 7246,
      "Ġpassword": 7247,
      "ĠFif": 7248,
      "ĠFlo": 7249,
      "ĠEd": 7250,
      "Ġintres": 7251,
      "Ġà¤ķà¤¸à¤ķà¤°": 7252,
      "à¤ıà¤ļà¤ıà¤¸": 7253,
      "Ġà¤Ĺà¤¡à¤¬à¤¡": 7254,
      "Ġà¥§à¥«à¥®": 7255,
      "over": 7256,
      "ĠÂ£": 7257,
      "Ġ1880": 7258,
      "1973": 7259,
      "à¥¯à¥¯": 7260,
      "Ġà¥§à¥¯à¥®à¥ª": 7261,
      "Ġà¥§à¥¯à¥®à¥¯": 7262,
      "Indian": 7263,
      "Ġdays": 7264,
      "flict": 7265,
      "ĠFifth": 7266,
      "Ġintresting": 7267,
      "BS": 7268,
      "Coptic": 7269,
      "Ethiopian": 7270,
      "Socket": 7271,
      "bus": 7272,
      "chi": 7273,
      "cub": 7274,
      "vanced": 7275,
      "ys": 7276,
      "à¤¿à¥į": 7277,
      "Ġà¤®à¤ľà¤¨": 7278,
      "Ġà¤ħà¤¸à¤ķ": 7279,
      "à¤¼à¥ĥ": 7280,
      "à¤¶à¤¯à¤¤": 7281,
      "à¤·à¤²": 7282,
      "Ġà¤Ĩà¤¢": 7283,
      "Ġà¤Ńà¤¡à¤ķ": 7284,
      "Ġà¤īà¤¨à¤¤": 7285,
      "Ġà¤¹à¤®à¤¦": 7286,
      "Ġà¤ħà¤¨à¤®à¤¨": 7287,
      "à¤²à¤¨à¤ªà¤¤": 7288,
      "à¤¼à¥ĩ?": 7289,
      "à¤ĺà¤²à¤¨": 7290,
      "Ġà¤¦à¤°à¤ª": 7291,
      "à¥Ģ--": 7292,
      "ince": 7293,
      "à¤«à¤²à¤¸": 7294,
      "à¤ļà¤°à¤²": 7295,
      "ency": 7296,
      "ĠShow": 7297,
      "Ġpref": 7298,
      "à¤ĩà¤¡à¤¶": 7299,
      "://...": 7300,
      "Ġà¤«à¤²à¤¦": 7301,
      "ĠTax": 7302,
      "à¥ĭ--": 7303,
      "Ġà¤®à¤²à¤ľà¤²": 7304,
      "Ġ240": 7305,
      "à¥Ńà¥«": 7306,
      "Ġà¤ªà¤ļà¤¹à¤¤": 7307,
      "1860": 7308,
      "Ġva": 7309,
      "Ġà¤ĵà¤µà¤°à¤¡": 7310,
      "1957": 7311,
      "1976": 7312,
      "à¥§à¥¯à¥¬": 7313,
      "ÃīÅ": 7314,
      "ncil": 7315,
      "Ġà¤¹à¤łà¤¯": 7316,
      "viià¤ķ": 7317,
      "à¤ħà¤µà¤¸à¤°": 7318,
      "Insert": 7319,
      "ĠSTUN": 7320,
      "urrent": 7321,
      "limate": 7322,
      "220": 7323,
      ":\"": 7324,
      "DM": 7325,
      "GL": 7326,
      "YP": 7327,
      "ield": 7328,
      "klin": 7329,
      "ner": 7330,
      "Ã©": 7331,
      "Ġid": 7332,
      "à¤Ĥ:": 7333,
      "à¤¨à¤°à¤®": 7334,
      "à¤¯à¤¯à¤ķ": 7335,
      "à¤¯à¤ħ": 7336,
      "à¤¸à¤ªà¤¦": 7337,
      "Ġà¤ľà¤ª": 7338,
      "à¥ĩà¤ĤâĢĵ": 7339,
      "Ġà¤ħà¤¯à¤¥": 7340,
      "Ġà¤²à¤Ń": 7341,
      "à¤ľà¤¯à¤µ": 7342,
      "à¤ıà¤Ĩà¤Īà¤Ĩà¤°": 7343,
      "à¤·à¤µà¤°": 7344,
      "Ġà¤Ĩà¤°à¤¤": 7345,
      "Ġà¤Ĩà¤ķà¤²": 7346,
      "Ġ(),": 7347,
      "Ġà¤ļà¤ķà¤¨": 7348,
      "Ġà¤ħà¤¨à¤ķà¤°": 7349,
      "Ġà¤¤à¤°à¤µ": 7350,
      "Ġ220": 7351,
      "à¤ħà¤¸à¤¤": 7352,
      "à¤īà¤Łà¤°": 7353,
      "Ġà¤¸à¤®à¤¯à¤¸": 7354,
      "Ġsearch": 7355,
      "à¥Ģ)-": 7356,
      "america": 7357,
      "à¤¬à¤²à¤°": 7358,
      "ict": 7359,
      "eep": 7360,
      "ĠAct": 7361,
      "Ġcategory": 7362,
      "ĠMC": 7363,
      "Ġà¤ªà¤²à¤¡": 7364,
      "ĠPR": 7365,
      "iles": 7366,
      "Ġ[\\\\": 7367,
      "Ġà¤ªà¤¨à¤ªà¤¤": 7368,
      "Ġ164": 7369,
      "Ġ263": 7370,
      "Ġà¤Ĺà¤łà¤ľ": 7371,
      "à¤ĳà¤¸": 7372,
      "iiià¤ķ": 7373,
      "à¤īà¤ªà¤ķà¤°à¤£": 7374,
      "Ġ1899": 7375,
      "Ġrajeshkajha": 7376,
      "orea": 7377,
      "Ġ1861": 7378,
      "acebook": 7379,
      "Ġâĺ»âĺ»âĺ»": 7380,
      "à¤µà¤²à¤¨à¤¶": 7381,
      "centre": 7382,
      "reenhouse": 7383,
      "ĠFranklin": 7384,
      "vietnam": 7385,
      "argentina": 7386,
      "imian": 7387,
      "ĠCouncil": 7388,
      "ĠFloor": 7389,
      "\"--": 7390,
      "/'": 7391,
      "AGE": 7392,
      "Of": 7393,
      "Pr": 7394,
      "UC": 7395,
      "User": 7396,
      "bb": 7397,
      "desktop": 7398,
      "à¥ĩâĢĶ": 7399,
      "à¥įà¤¾à¥Ģ": 7400,
      "à¤¿!": 7401,
      "à¥Ģà¤¿": 7402,
      "à¤®à¤ľà¤¬": 7403,
      "Ġà¤®à¤°à¤µ": 7404,
      "à¤¦à¤¯à¤¸": 7405,
      "Ġà¤ħà¤Ĺà¤¤": 7406,
      "à¥ĭà¤Ĥà¤ĥ": 7407,
      "à¤¬à¤ĭ": 7408,
      "Ġà¤°à¤Ł": 7409,
      "Ġà¤°à¤ļà¤¤": 7410,
      "à¤ıà¤ıà¤«": 7411,
      "Ġà¤ķà¤°à¤²": 7412,
      "à¤§à¤¹": 7413,
      "Ġà¤¥à¤¨": 7414,
      "Ġà¤ħà¤¨à¤¹": 7415,
      "à¤ĩà¤®à¤¸": 7416,
      "à¤ĩà¤ıà¤®": 7417,
      "à¤łà¤¦": 7418,
      "à¤°à¤£à¤µ": 7419,
      "à¤ĵà¤ľ": 7420,
      "âĢİ": 7421,
      "à¤ŀà¤£": 7422,
      "Ġà¤ĵà¤Ŀ": 7423,
      "à¤īà¤¸à¤°": 7424,
      "à¤¸à¤¨à¤µ": 7425,
      "à¤®à¤ķà¤¨": 7426,
      "Ġà¤®à¤¨à¤¹": 7427,
      "mes": 7428,
      "menia": 7429,
      "à¤Ĭà¤ľ": 7430,
      "lace": 7431,
      "icros": 7432,
      "ĠCH": 7433,
      "Ġà¤ħà¤«à¤°": 7434,
      "ĠAR": 7435,
      "ĠAss": 7436,
      "Â¤ÂĤ:": 7437,
      "ility": 7438,
      "à¤¿.)": 7439,
      "à¥¨à¥¬": 7440,
      "Ġ148": 7441,
      "Ġà¤īà¤¤à¤°à¤ķà¤°": 7442,
      "à¤ĩà¤®à¤Ĩà¤īà¤Ł": 7443,
      "ivative": 7444,
      "Ġlanguage": 7445,
      "Ġà¥ªà¥ª": 7446,
      "user": 7447,
      "à¤įà¤¸": 7448,
      "ession": 7449,
      "Ġà¥§à¥¯à¥¯à¥¨": 7450,
      "1952": 7451,
      "1958": 7452,
      "à¤³à¤µ": 7453,
      "Ġà¤ļà¤¹à¤ļà¤¹": 7454,
      "Ġà¤¥à¤°à¤¥à¤°": 7455,
      "OST": 7456,
      "ixbu": 7457,
      "Ġà¥§à¥¯à¥©à¥¬": 7458,
      "âĢ¦âĢ¦": 7459,
      "Ġaddress": 7460,
      "Ġbenefits": 7461,
      "toolbar": 7462,
      "%),": 7463,
      ".:": 7464,
      "DB": 7465,
      "Font": 7466,
      "])?": 7467,
      "bject": 7468,
      "custom": 7469,
      "ie": 7470,
      "ities": 7471,
      "mt": 7472,
      "rame": 7473,
      "rror": 7474,
      "ync": 7475,
      "Ãº": 7476,
      "à¥į'": 7477,
      "à¥į:": 7478,
      "Ġà¤ķà¤¸à¤°": 7479,
      "à¤¤à¤¯à¤¶": 7480,
      "à¤¸france": 7481,
      "à¥Īà¥į": 7482,
      "Ġà¤ľà¤Ĺà¤®": 7483,
      "à¤¼'": 7484,
      "Ġà¤Ĺà¤¦à¤°": 7485,
      "à¤ĪName": 7486,
      "Ġà¤«à¤¬à¤¤": 7487,
      "à¤ªà¤°à¤ľ": 7488,
      "à¤¯à¤®à¤¸": 7489,
      "à¤µà¤¨à¤ªà¤°": 7490,
      "Ġà¤ħà¤µà¤°à¤ķ": 7491,
      "Ġà¤ĵà¤¤à¤ª": 7492,
      "Ġà¤ħà¤ļà¤®": 7493,
      "à¥Ģ):": 7494,
      "Ġà¤¨à¤µà¤µà¤°": 7495,
      "ich": 7496,
      "ĠSA": 7497,
      "Ġ020": 7498,
      "ater": 7499,
      "à¥Ģà¤ĥ-": 7500,
      "ĠIT": 7501,
      "Ġ114": 7502,
      "à¤ıà¤¨à¤Ł": 7503,
      "ĠLF": 7504,
      "à¤ħà¤ľà¤ľ": 7505,
      "ĠEkiga": 7506,
      "Ġà¤ıà¤ļà¤¸": 7507,
      "Ġele": 7508,
      "Ġinput": 7509,
      "à¤ĳà¤¨à¤²": 7510,
      "ĠZà¤«": 7511,
      "ĠXimian": 7512,
      "uss": 7513,
      "ash": 7514,
      "Ġvc": 7515,
      "Ġà¥§à¥«à¥¦à¥¦": 7516,
      "inder": 7517,
      "erson": 7518,
      "1981": 7519,
      "ÃīÄ": 7520,
      "Ġ\\\\])?": 7521,
      "ymbol": 7522,
      "Ġà¥§à¥¯à¥¬à¥¦": 7523,
      "directory": 7524,
      "Ġ\\\\])?:": 7525,
      "050": 7526,
      "Qà¤·": 7527,
      "TLS": 7528,
      "Zà¤¤": 7529,
      "\\-": 7530,
      "`%": 7531,
      "bi": 7532,
      "ipp": 7533,
      "rd": 7534,
      "ris": 7535,
      "ups": 7536,
      "xt": 7537,
      "à¥įà¤¾": 7538,
      "Ġà¤ķà¤ķà¤¡": 7539,
      "à¥ĭà¤¼": 7540,
      "à¤¸à¤¥": 7541,
      "Ġà¤¹à¤°à¤£": 7542,
      "Ġà¤¹à¤°à¤¦": 7543,
      "Ġà¤¸à¤ķà¤°": 7544,
      "Ġà¤ªà¤ľ": 7545,
      "Ġà¤ľà¤Ī": 7546,
      "Ġà¤Ĩà¤ĩà¤ľ": 7547,
      "Ġà¤Ńà¤Łà¤¨": 7548,
      "Ġà¤ļà¤¸": 7549,
      "à¥Į)": 7550,
      "à¥Į.": 7551,
      "Ġà¤ħà¤§à¤¸": 7552,
      "à¤°à¤®à¤ľ": 7553,
      "Ġà¤Ľà¤²à¤ķ": 7554,
      "à¤¯à¤®à¤²": 7555,
      "Â¤Âĵ": 7556,
      "Ġà¤ħà¤µà¤¸à¤¨": 7557,
      "à¤¦à¤¨à¤ķà¤°": 7558,
      "Ġà¤ħà¤ªà¤¶à¤ķ": 7559,
      "Ġserv": 7560,
      "Ġà¤¬à¤¢à¤ĭ": 7561,
      "Ġà¤¢à¤°": 7562,
      "tit": 7563,
      "Ġà¤ľà¤²à¤§": 7564,
      "à¥ĩà¤Ĥ).": 7565,
      "Ġà¤®à¤°à¤Ĺ": 7566,
      "other": 7567,
      "Ġ9000": 7568,
      "ĠNI": 7569,
      "ĠNP": 7570,
      "ĠNHS": 7571,
      "ĠEmail": 7572,
      "Ġhref": 7573,
      "cep": 7574,
      "acc": 7575,
      "Ġlistbox": 7576,
      "Ġ270": 7577,
      "Ġ215": 7578,
      "Ġà¥«à¥¬": 7579,
      "Ġà¥¬à¥ª": 7580,
      "Ġformat": 7581,
      "Ġstar": 7582,
      "1959": 7583,
      "à¥¯à¥«": 7584,
      "Ġ1876": 7585,
      "Ġà¤ĸà¤Łà¤®à¤²": 7586,
      "derivative": 7587,
      "Ġafghanistan": 7588,
      "ĠUSB": 7589,
      "ĠJobcentre": 7590,
      "Ġclust": 7591,
      "ĠJavaScript": 7592,
      "icrosoft": 7593,
      "Ctrl": 7594,
      "Database": 7595,
      "db": 7596,
      "friend": 7597,
      "su": 7598,
      "va": 7599,
      "we": 7600,
      "Ġà¤³": 7601,
      "Ġà¤ķà¤Łà¤°": 7602,
      "à¤Ĥà¤¾": 7603,
      "à¤¤à¤ªà¤°": 7604,
      "à¤¤à¤¤à¤®": 7605,
      "Ġà¤¸à¤ªà¤°": 7606,
      "à¤®à¤«à¤²": 7607,
      "à¤¹à¤ķà¤¤": 7608,
      "à¤¦à¤ļ": 7609,
      "Ġà¤ħà¤ĸà¤°": 7610,
      "à¥ĭà¤Ĥà¤¾": 7611,
      "à¤¶à¤£": 7612,
      "Ġà¤ķà¤°à¤Ĺ": 7613,
      "Ġà¤ķà¤°à¤ĺ": 7614,
      "à¤·à¤°à¤¶": 7615,
      "Ġà¤Ĺà¤¶": 7616,
      "Ġà¤ıà¤¹": 7617,
      "à¤°à¤ķà¤¥à¤¨": 7618,
      "Ġà¤ªà¤¹à¤¨à¤ķà¤°": 7619,
      "à¤Ĩà¤¦à¤¤": 7620,
      "Ġà¤ħà¤²à¤¹à¤¦": 7621,
      "à¤¤à¤¨à¤Ń": 7622,
      "à¤¶à¤¨à¤Ń": 7623,
      "à¤ĺà¤ĺ": 7624,
      "Ġà¤ĵà¤¦": 7625,
      "à¤īà¤ªà¤¦": 7626,
      "Ġà¤Ŀà¤£": 7627,
      "à¤¾)?": 7628,
      "Ġà¤Ĩà¤§à¤°": 7629,
      "Ġà¤ħà¤¬à¤²": 7630,
      "à¤°à¤¨à¤¹": 7631,
      "Ġna": 7632,
      "Ġà¤ħà¤®à¤°à¤¨": 7633,
      "à¤¨à¤µà¤®": 7634,
      "à¤ķà¤Łà¤ª": 7635,
      "à¤¹à¤®à¤£": 7636,
      "Ġà¤īà¤²à¤Łà¤¨": 7637,
      "ĠaI": 7638,
      "à¤°à¤ľà¤®": 7639,
      "abber": 7640,
      "Ġ8000": 7641,
      "à¥Īà¤Ĥ?\"": 7642,
      "Ġà¤ħà¤¸à¤®à¤¯": 7643,
      "Ġ118": 7644,
      "ĠPDF": 7645,
      "Ġfrance": 7646,
      "Ġà¤ħà¤¹à¤®à¤ķ": 7647,
      "Ġweekday": 7648,
      "eland": 7649,
      "Ġà¤īà¤¤à¤°à¤µ": 7650,
      "Ġà¥©à¥¦à¥¦": 7651,
      "à¥§à¥¯": 7652,
      "à¥©à¥«": 7653,
      "âĢĺâĢĺ": 7654,
      "à¥Ī......": 7655,
      "Ġ233": 7656,
      "Ġà¥«à¥¦à¥¦": 7657,
      "Ġik": 7658,
      "Ġà¤¤à¤¹à¤²à¤ķ": 7659,
      "unch": 7660,
      "Ġ1881": 7661,
      "Ġ1886": 7662,
      "Ġ1870": 7663,
      "à¤¾......": 7664,
      "Ġ1867": 7665,
      "Ġ--&": 7666,
      "Ġà¤Ľà¤Łà¤ªà¤Ł": 7667,
      "ĠConnector": 7668,
      "Ġreminder": 7669,
      "ĠRemote": 7670,
      "Ar": 7671,
      "BO": 7672,
      "Fmt": 7673,
      "Key": 7674,
      "ler": 7675,
      "lob": 7676,
      "ozilla": 7677,
      "ument": 7678,
      "zone": 7679,
      "âĻ": 7680,
      "à¤¾(": 7681,
      "à¤¨à¤¹à¤²": 7682,
      "à¤¯à¤¬à¤°": 7683,
      "à¤¯à¤Ļ": 7684,
      "à¤®à¤¤à¤°": 7685,
      "à¤²à¤«à¤¤": 7686,
      "à¥ģà¥ħà¤Ĥ": 7687,
      "Ġà¤®à¤ĭ": 7688,
      "à¤µà¤¦à¤¤": 7689,
      "à¤ªà¤²à¤°": 7690,
      "Ġà¤¨à¤²à¤ķ": 7691,
      "Ġà¤²à¤¹à¤²à¤¹": 7692,
      "à¤¶à¤°à¤ķ": 7693,
      "à¤Łà¤£": 7694,
      "à¤ŁComment": 7695,
      "à¤·à¤ªà¤¦": 7696,
      "Ġà¤Ĩà¤°à¤£": 7697,
      "Ġà¤Ĩà¤°à¤¸": 7698,
      "Ġà¤Ńà¤¨": 7699,
      "à¤£à¤²": 7700,
      "Ġà¤Ĺà¤²à¤Ĺ": 7701,
      "Ġà¤ªà¤°à¤Ĺà¤¨": 7702,
      "à¤Ńà¤¡": 7703,
      "Ġà¤ıà¤Łà¤®": 7704,
      "à¤ĩà¤Ĩà¤ķ": 7705,
      "Ġà¤¸à¤¹à¤¤": 7706,
      "Ġà¤Īà¤¥": 7707,
      "Ġà¤¸à¤¬à¤°": 7708,
      "Ġà¤īà¤¦à¤Ń": 7709,
      "à¤µà¤¤à¤¤": 7710,
      "à¤°à¤Ńà¤ķ": 7711,
      "à¥Ģ))": 7712,
      "à¤ĩà¤²à¤¶": 7713,
      "Ġà¤®à¤¨à¤µ": 7714,
      "à¤Ĳà¤Ĺ": 7715,
      "Ġà¤°à¤ķà¤¸": 7716,
      "ĠaDate": 7717,
      "Ġdis": 7718,
      "iter": 7719,
      "à¤Ńà¤Ĺà¤µ": 7720,
      "Ġà¤®à¤¸à¤ľ": 7721,
      "à¤²à¤®à¤ĸ": 7722,
      "à¤¤à¤²à¤¡": 7723,
      "ĠMP": 7724,
      "à¤ıà¤¨à¤ıà¤ļ": 7725,
      "ouse": 7726,
      "ĠFTP": 7727,
      "ĠGtk": 7728,
      "ĠEnter": 7729,
      "ection": 7730,
      "ques": 7731,
      "Ġà¥ªà¥¬": 7732,
      "ĠView": 7733,
      "Ġà¤Ľà¤ªà¤µ": 7734,
      "256": 7735,
      "apps": 7736,
      "1971": 7737,
      "Ġà¥§à¥¬à¥¦": 7738,
      "Ġà¥§à¥¯à¥Ńà¥¦": 7739,
      "à¤¡à¤ĭà¤ı": 7740,
      "Ġà¥¯à¥¯": 7741,
      "DEV": 7742,
      "peru": 7743,
      "Ġatt": 7744,
      "urrpage": 7745,
      "ĠEvince": 7746,
      "ĠaDateFmt": 7747,
      "')": 7748,
      "App": 7749,
      "System": 7750,
      "`.": 7751,
      "au": 7752,
      "iod": 7753,
      "known": 7754,
      "px": 7755,
      "xi": 7756,
      "à¤ķà¤¹à¤¨": 7757,
      "à¤¯à¤ı": 7758,
      "à¤¸à¤¤à¤ķ": 7759,
      "Ġà¤ªà¤²à¤¨": 7760,
      "à¤¦à¤ı": 7761,
      "Ġà¤ľà¤¦": 7762,
      "Ġà¤¨à¤¸à¤²": 7763,
      "à¥ĭà¤Ĥà¥į": 7764,
      "à¥ĭà¤Ĥ''": 7765,
      "Ġà¤²à¤¥": 7766,
      "à¤¶à¤°à¤£": 7767,
      "à¤Łà¤ı": 7768,
      "Ġà¤Ĺà¤ĩ": 7769,
      "à¤ĸà¤®à¤¯": 7770,
      "Ġà¤ıà¤®à¤°": 7771,
      "Ġà¤ļà¤®à¤ļ": 7772,
      "Ġà¤ĸà¤°à¤¬": 7773,
      "Ġà¤¨à¤¹à¤¸": 7774,
      "à¤Ľà¤ķà¤°": 7775,
      "Ġà¤¡à¤¸": 7776,
      "à¤Ĩà¤ªà¤¨": 7777,
      "à¤Ĩà¤Ľ": 7778,
      "à¤Ĩà¤¨à¤²": 7779,
      "à¤ªà¤°à¤ĸ": 7780,
      "Ġà¤¤à¤°à¤¬": 7781,
      "Ġà¤¸à¤¹à¤ļ": 7782,
      "Ġà¤¸à¤¹à¤Ĺà¤²": 7783,
      "à¤¯à¤®à¤µà¤°": 7784,
      "à¤²à¤¤à¤®à¤¨": 7785,
      "Ġà¤ħà¤µà¤ª": 7786,
      "Ġ\"\"": 7787,
      "à¤ħà¤°à¤ķ": 7788,
      "à¤¸à¤®à¤¬à¤°": 7789,
      "à¤¯à¤¨à¤®": 7790,
      "à¤¯à¤¨à¤µ": 7791,
      "Ġà¤īà¤¦à¤Ĺà¤®": 7792,
      "Ġà¤ħà¤ªà¤ĺà¤Łà¤¨": 7793,
      "Ġsak": 7794,
      "Ġà¤¬à¤¦à¤¹": 7795,
      "Ġ'-": 7796,
      "Ġ'<": 7797,
      "Ġà¤¸à¤¤à¤ª": 7798,
      "Ġà¤¸à¤¤à¤¤à¤¤": 7799,
      "Ġà¤ľà¤²à¤°": 7800,
      "Ġà¤ħà¤ľà¤°à¤¬": 7801,
      "Ġà¤īà¤²à¤«à¤¤": 7802,
      "à¤¯à¤ªà¤Ĺà¤¤": 7803,
      "Ġà¤²à¤ķà¤µ": 7804,
      "Ġà¤¸à¤ľà¤Ĺà¤¤": 7805,
      "ĠCc": 7806,
      "à¤µà¤ľà¤¹": 7807,
      "ĠTo": 7808,
      "ous": 7809,
      "Ġpart": 7810,
      "à¥ĭ?-": 7811,
      "ĠRSV": 7812,
      "Ġ133": 7813,
      "ĠEMAIL": 7814,
      "Ġek": 7815,
      "ĠinEMAIL": 7816,
      "à¥©à¥©": 7817,
      "à¤īà¤ľà¤¡": 7818,
      "à¤²à¤Ĺà¤ĩà¤¨Name": 7819,
      "Ġà¥«à¥ª": 7820,
      "Ġà¤ıà¤¡à¤ľà¤¸": 7821,
      "à¤¯à¤¬à¤ľ": 7822,
      "à¤¸à¤®à¤Ŀà¤ķà¤°": 7823,
      "à¤¾âĢĻ,": 7824,
      "Ġ1892": 7825,
      "Ġstyle": 7826,
      "1984": 7827,
      "Ġà¥§à¥¯à¥Ńà¥«": 7828,
      "Ġà¥§à¥¯à¥Ńà¥¯": 7829,
      "estart": 7830,
      "Ġà¤Ĥà¤Ĥ": 7831,
      "Ġantiderivative": 7832,
      "Ġvalue": 7833,
      "Ġclustering": 7834,
      "lobal": 7835,
      "ĠRSVP": 7836,
      "${": 7837,
      ")''": 7838,
      ".\"": 7839,
      "CN": 7840,
      "IB": 7841,
      "IBM": 7842,
      "Time": 7843,
      "list": 7844,
      "ning": 7845,
      "pad": 7846,
      "tra": 7847,
      "ymp": 7848,
      "à¤°à¤°à¤¹": 7849,
      "à¤°City": 7850,
      "à¤¯à¤£à¤¨": 7851,
      "à¤¯à¤ĭ": 7852,
      "à¤¹à¤§": 7853,
      "à¥ģ;": 7854,
      "Ġà¤īà¤Ĺà¤²": 7855,
      "à¤Łà¤¶": 7856,
      "à¤ıà¤ı": 7857,
      "à¤ıà¤¸à¤ķ": 7858,
      "Ġà¤ķà¤°à¤ķà¤°": 7859,
      "Ġà¤Ĺà¤Ń": 7860,
      "à¤Ńà¤¯à¤¤": 7861,
      "Ġà¤ıà¤¹à¤°": 7862,
      "Ġà¤¶à¤¬à¤°": 7863,
      "Ġà¤ĩà¤¸à¤ª": 7864,
      "Ġà¤ĩà¤¸à¤ĭ": 7865,
      "à¤¾à¤Ĥ?": 7866,
      "à¤¾à¤ĤâĢĵ": 7867,
      "à¥Į-": 7868,
      "Ġà¤ħà¤¨à¤¬": 7869,
      "Ġà¤īà¤ªà¤µà¤°": 7870,
      "à¤¼à¥Ģà¤ĥ": 7871,
      "Ġà¤¬à¤¹à¤®à¤¨": 7872,
      "à¤ħà¤Ĺà¤¸": 7873,
      "Ġà¤¸à¤®à¤¯à¤ª": 7874,
      "Ġà¤¸à¤°à¤«": 7875,
      "Ġsymbol": 7876,
      "Ġà¥ł": 7877,
      "Ġ330": 7878,
      "Ġà¤¬à¤¸à¤µà¤¨": 7879,
      "inter": 7880,
      "à¤¨à¤°à¤²": 7881,
      "à¤ıà¤¸à¤¯": 7882,
      "alk": 7883,
      "à¤Łà¤²à¤®": 7884,
      "à¤Ĩà¤Īà¤ıà¤¨": 7885,
      "Ġà¤ļà¤¯à¤¨à¤ķà¤°": 7886,
      "à¤¼à¥ĩà¤Ĥ?": 7887,
      "Ġ1824": 7888,
      "à¤ıà¤®à¤ı": 7889,
      "ĠAp": 7890,
      "ĠAir": 7891,
      "à¥Ī-(": 7892,
      "read": 7893,
      "Ġ126": 7894,
      "à¥Ĥà¤ģà¥¤-": 7895,
      "Ġ254": 7896,
      "1215": 7897,
      "Ġ131": 7898,
      "utes": 7899,
      "via": 7900,
      "ural": 7901,
      "180": 7902,
      "Ġvari": 7903,
      "Ġres": 7904,
      "à¥Ĩà¤Ĥà¥¤": 7905,
      "Ġà¤¤à¤¹à¤ľ": 7906,
      "board": 7907,
      "à¤§à¤ªà¤°à¤ķ": 7908,
      "Ġ1873": 7909,
      "ENSION": 7910,
      "ermany": 7911,
      "Ġà¤¬à¤¦à¤¨à¤¸": 7912,
      "command": 7913,
      "Ġplan": 7914,
      "Ġreport": 7915,
      "Ġà¤ħà¤ªà¤¤à¤Ł": 7916,
      "ributions": 7917,
      "ustralia": 7918,
      "FontDatabase": 7919,
      "%.": 7920,
      "CA": 7921,
      "Dialog": 7922,
      "PL": 7923,
      "TS": 7924,
      "TW": 7925,
      "burn": 7926,
      "date": 7927,
      "path": 7928,
      "roll": 7929,
      "Ġà¥į": 7930,
      "Ġii": 7931,
      "à¤°à¤Ī": 7932,
      "à¤¨à¤¯à¤¶": 7933,
      "à¤¨à¤Ĺà¤¢": 7934,
      "à¤¤à¤µà¤¨": 7935,
      "à¤¸Comment": 7936,
      "à¤®à¤¹à¤²": 7937,
      "à¤¦à¤ľà¤¨à¤ķ": 7938,
      "Ġà¤ħà¤Ĺà¤®": 7939,
      "à¤¼à¥Īà¤Ĥ": 7940,
      "Ġà¤īà¤¬à¤°": 7941,
      "à¥Ĥ'": 7942,
      "à¤¬à¤¹à¤ķ": 7943,
      "Ġà¤°à¤ľà¤¨": 7944,
      "à¤§à¤°à¤¨": 7945,
      "à¤ļà¤Ń": 7946,
      "Ġà¤¯à¤§à¤ª": 7947,
      "à¤£à¤Ń": 7948,
      "Ġà¤Ĺà¤Ł": 7949,
      "à¤Īà¤Ĩà¤°à¤Ł": 7950,
      "à¤ªà¤¨à¤¨": 7951,
      "à¤«à¤°à¤µà¤°": 7952,
      "à¤¾à¤Ĥà¤ĥ": 7953,
      "à¤°à¤£à¤ķ": 7954,
      "à¤ľà¤¨à¤ķà¤°": 7955,
      "Ġà¤ħà¤²à¤¬à¤°": 7956,
      "Ġà¤ĩà¤¨à¤¹": 7957,
      "à¥ĩ,âĢĵ": 7958,
      "Ġà¤ªà¤¹à¤²à¤µ": 7959,
      "à¤°à¤µà¤¸": 7960,
      "Ġà¤ħà¤°à¤¹à¤°": 7961,
      "Ġà¤ħà¤ªà¤ķà¤°": 7962,
      "à¥Ģ).": 7963,
      "Ġà¤Ĩà¤Ĺà¤¨": 7964,
      "onia": 7965,
      "Ġà¤Ĩà¤µà¤¶à¤ĭ": 7966,
      "Ġà¤ªà¤¦à¤§": 7967,
      "à¤¡à¤²à¤®": 7968,
      "Ġaction": 7969,
      "à¤°à¤ľà¤Ń": 7970,
      "Ġde": 7971,
      "Ġdiv": 7972,
      "à¤¯à¤²à¤²": 7973,
      "ority": 7974,
      "à¤ıà¤®à¤¬": 7975,
      "Ġà¤ĩà¤ķà¤ł": 7976,
      "Ġà¤Ĺà¤£à¤ª": 7977,
      "à¤ıà¤²à¤Ł": 7978,
      "ĠMicrosoft": 7979,
      "à¥ħà¥Ĥ": 7980,
      "ĠFA": 7981,
      "Ġmod": 7982,
      "ray": 7983,
      "Ġgpg": 7984,
      "Ġxml": 7985,
      "à¥¬à¥«": 7986,
      "à¥©à¥ª": 7987,
      "Ġ234": 7988,
      "hip": 7989,
      "Ġà¤ħà¤Łà¤ªà¤Ł": 7990,
      "Ġà¥¬à¥¦à¥¦": 7991,
      "à¤¾',": 7992,
      "à¤īà¤ªà¤Ń": 7993,
      "à¤īà¤ªà¤²à¤¬": 7994,
      "Ġstd": 7995,
      "Ġ1887": 7996,
      "à¤ĵà¤ıà¤¸à¤ıà¤¸": 7997,
      "Ġà¤¸à¤°à¤²à¤¤à¤®": 7998,
      "ICO": 7999,
      "Ġà¥§à¥¯à¥¦à¥¦": 8000,
      "à¥¨à¥¦à¥¦à¥§": 8001,
      "Ġcontributions": 8002,
      "slot": 8003,
      "autom": 8004,
      "ĠMCX": 8005,
      ";...)": 8006,
      "Web": 8007,
      "Windows": 8008,
      "ho": 8009,
      "ied": 8010,
      "imp": 8011,
      "log": 8012,
      "man": 8013,
      "mit": 8014,
      "not": 8015,
      "si": 8016,
      "south": 8017,
      "type": 8018,
      "windows": 8019,
      "§à¥¦": 8020,
      "Ġâĺ»": 8021,
      "à¤Ĥà¤Ĥ": 8022,
      "à¤¤à¤µà¤²": 8023,
      "à¤ķà¤®à¤°": 8024,
      "Ġà¤¸à¤°à¤®": 8025,
      "Ġà¤¸à¤Ĩà¤¦à¤¤": 8026,
      "à¤²à¤®à¤ķ": 8027,
      "Ġà¤ªà¤ªà¤°": 8028,
      "à¥ĪâĢ¦": 8029,
      "à¤¦à¤®à¤¨": 8030,
      "à¤Ĺà¤ªà¤Ł": 8031,
      "Ġà¤ħà¤¦à¤°": 8032,
      "Ġà¤¨à¤¤à¤®à¤¸": 8033,
      "Ġà¤¬à¤Īà¤¦": 8034,
      "Ġà¤īà¤ľà¤²": 8035,
      "à¥Ĥà¥į": 8036,
      "à¤ľà¤Ĺà¤¦": 8037,
      "à¤¬à¤°à¤ķ": 8038,
      "Ġà¤Ĩà¤®à¤²": 8039,
      "Ġà¤Ńà¤Ĺà¤¦": 8040,
      "Ġà¤ĩà¤²à¤¯": 8041,
      "Ġà¤ĩà¤°à¤µ": 8042,
      "à¥Īà¤Ĥ'": 8043,
      "Ġà¤ıà¤¹à¤²": 8044,
      "à¥Ģà¤Ĥ!\"": 8045,
      "à¤«à¤°à¤ª": 8046,
      "Ġà¤¸à¤®à¤Ń": 8047,
      "Ġà¤¸à¤®à¤°à¤¸à¤¤": 8048,
      "Ġà¤ħà¤¨à¤ĸ": 8049,
      "Ġà¤ķà¤¹à¤«": 8050,
      "à¤Ĩà¤Ń": 8051,
      "à¤Ĩà¤ªà¤¦": 8052,
      "à¤Ĩà¤¯à¤¶": 8053,
      "Ġà¤Ĩà¤ªà¤ªà¤°": 8054,
      "à¥Ī.....": 8055,
      "à¥Ģà¥¤--": 8056,
      "à¤ħà¤¬à¤ķ": 8057,
      "à¤Ĺà¤¤à¤®": 8058,
      "Ġà¤ĵà¤Ĺ": 8059,
      "à¤Łà¤°à¤Ĺ": 8060,
      "à¤īà¤ł": 8061,
      "à¤¦à¤¨à¤Ĺà¤°": 8062,
      "à¤°à¤µà¤¦": 8063,
      "Ġà¤¹à¤°à¤ıà¤ķ": 8064,
      "Ġà¤Ĩà¤°à¤Ĩà¤Īà¤¡": 8065,
      "à¤¸à¤²à¤°": 8066,
      "à¥Ģ./": 8067,
      "Ġà¤¬à¤²à¤¦": 8068,
      "Ġà¤¬à¤²à¤Ĺà¤®": 8069,
      "à¤°à¤¨à¤Ĺà¤°": 8070,
      "Ġà¤ľà¤²à¤¡à¤®à¤°": 8071,
      "Ġà¤ªà¤¦à¤¸": 8072,
      "anc": 8073,
      "Ġà¤¤à¤°à¤«à¤¦": 8074,
      "à¤µà¤¸à¤µà¤¸": 8075,
      "Ġà¤°à¤ķà¤ħà¤¤": 8076,
      "à¤¹à¤®à¤ªà¤°": 8077,
      "ication": 8078,
      "à¤°à¤§à¤°": 8079,
      "Ġà¤¬à¤ľà¤¤": 8080,
      "ĠAL": 8081,
      "à¤°à¤ªà¤µ": 8082,
      "Ġà¤¤à¤²à¤ªà¤Ł": 8083,
      "ĠPM": 8084,
      "secon": 8085,
      "Ġ255": 8086,
      "Ġà¤¤à¤¨à¤¹": 8087,
      "Ġ167": 8088,
      "Ġweb": 8089,
      "Ġ176": 8090,
      "Ġgram": 8091,
      "Ġind": 8092,
      "Ġà¥©à¥®": 8093,
      "river": 8094,
      "à¤¨à¤¹à¤Ĺ": 8095,
      "Ġ266": 8096,
      "à¤ĳà¤¯à¤²": 8097,
      "Ġld": 8098,
      "à¤ķà¤ķà¤¥": 8099,
      "à¤ĩà¤¬à¤°à¤¤": 8100,
      "à¤ªà¤¥à¤ª": 8101,
      "Ġ227": 8102,
      "Ġ273": 8103,
      "à¤²à¤Ĺà¤ĩà¤¨Comment": 8104,
      "Ġà¥ªà¥Ń": 8105,
      "Ġà¤ļà¤®à¤ķà¤¨": 8106,
      "Ġya": 8107,
      "Ġà¤Ĩà¤ĩà¤¸à¤ķ": 8108,
      "Ġà¤®à¤Ĺà¤°à¤®à¤ļ": 8109,
      "asa": 8110,
      "osis": 8111,
      "à¤¸à¤°à¤ķà¤¶": 8112,
      "ĠÂ¨": 8113,
      "Ġ1895": 8114,
      "1955": 8115,
      "à¥¯à¥©": 8116,
      "à¥ĭà¤Ĥ?\"": 8117,
      "1968": 8118,
      "jects": 8119,
      "Ġasymp": 8120,
      "ĠsaM": 8121,
      "errorism": 8122,
      "à¤¯à¤ªà¤°à¤²": 8123,
      "Ġ1440": 8124,
      "Ġà¤Īà¤¥à¤°à¤¨": 8125,
      "**": 8126,
      "?-": 8127,
      "EY": 8128,
      "Location": 8129,
      "TEXT": 8130,
      "cal": 8131,
      "fer": 8132,
      "mbox": 8133,
      "nao": 8134,
      "xiv": 8135,
      "Ġhtml": 8136,
      "à¤¿à¤¿": 8137,
      "à¤¨à¤°à¤ķ": 8138,
      "à¥Ģà¥Ģ": 8139,
      "à¤¤à¤ı": 8140,
      "à¤¤à¤²à¤µ": 8141,
      "à¤¤à¤¹à¤¸": 8142,
      "à¤¹à¤²à¤ķ": 8143,
      "à¥ģ:": 8144,
      "à¤ªà¤µà¤¤": 8145,
      "à¤Ĺà¤§": 8146,
      "Ġà¤µà¤£": 8147,
      "Ġà¤¤à¤°à¤¤": 8148,
      "Ġà¤²à¤²à¤ļ": 8149,
      "Ġà¤²à¤ķà¤¸à¤Ń": 8150,
      "Ġà¤°à¤¡": 8151,
      "à¤§à¤ķà¤¤": 8152,
      "à¤§à¤¨à¤ķ": 8153,
      "à¤§weather": 8154,
      "à¤¡à¤¸à¤¨": 8155,
      "à¤¥à¤ľ": 8156,
      "Ġ('": 8157,
      "Ġà¤«à¤ľà¤²": 8158,
      "Ġà¤¡à¤Ĺ": 8159,
      "Ġà¤¡à¤Łà¤ķà¤°": 8160,
      "à¤°à¤®à¤²": 8161,
      "à¤¸à¤°à¤ľ": 8162,
      "Ġà¤Łà¤²à¤¨": 8163,
      "Â¤Âĳ": 8164,
      "Ġà¤Ŀà¤®": 8165,
      "Ġà¤ħà¤ªà¤¯à¤¶": 8166,
      "Ġà¤¬à¤¦à¤¹à¤µ": 8167,
      "à¤¾-(": 8168,
      "Ġ320": 8169,
      "Ġà¤¢à¤²à¤¤": 8170,
      "à¤µà¤°à¤£à¤¶": 8171,
      "Ġ550": 8172,
      "Ġà¤ªà¤¢à¤¤": 8173,
      "Ġà¤®à¤¤à¤²": 8174,
      "Ġdu": 8175,
      "à¥Ī);": 8176,
      "à¤Ĺà¤łà¤¨à¤ķà¤°": 8177,
      "lean": 8178,
      "à¤ıà¤®à¤Ĩà¤°": 8179,
      "ĠAg": 8180,
      "Ġà¤ıà¤®à¤ıà¤®à¤Ł": 8181,
      "à¤²à¤µà¤Ł": 8182,
      "rew": 8183,
      "ĠMH": 8184,
      "ĠGame": 8185,
      "ĠGiB": 8186,
      "à¤ķà¤ªà¤¡": 8187,
      "ĠLess": 8188,
      "à¤Ļà¤¨": 8189,
      "ĠError": 8190,
      "1112": 8191
    },
    "merges": [
      [
        "à",
        "¤"
      ],
      [
        "Ġ",
        "à¤"
      ],
      [
        "à",
        "¥"
      ],
      [
        "à¤",
        "¾"
      ],
      [
        "à¤",
        "°"
      ],
      [
        "à¥",
        "ĩ"
      ],
      [
        "à¥",
        "į"
      ],
      [
        "à¤",
        "¿"
      ],
      [
        "Ġà¤",
        "ķ"
      ],
      [
        "à¤",
        "Ĥ"
      ],
      [
        "à¤",
        "¨"
      ],
      [
        "à¥",
        "Ģ"
      ],
      [
        "à¤",
        "¤"
      ],
      [
        "à¥",
        "ĭ"
      ],
      [
        "à¤",
        "ķ"
      ],
      [
        "à¤",
        "¯"
      ],
      [
        "à¤",
        "¸"
      ],
      [
        "Ġà¤",
        "¹"
      ],
      [
        "Ġà¤",
        "¸"
      ],
      [
        "à¤",
        "®"
      ],
      [
        "à¤",
        "¹"
      ],
      [
        "à¤",
        "²"
      ],
      [
        "à¥",
        "ģ"
      ],
      [
        "Ġà¤",
        "ª"
      ],
      [
        "Ġà¤",
        "®"
      ],
      [
        "à¥",
        "Ī"
      ],
      [
        "à¤",
        "µ"
      ],
      [
        "à¤",
        "¦"
      ],
      [
        "à¤",
        "ª"
      ],
      [
        "à¤",
        "Ĺ"
      ],
      [
        "Ġà¤",
        "ľ"
      ],
      [
        "à¥ĩ",
        "à¤Ĥ"
      ],
      [
        "Ġà¤",
        "ħ"
      ],
      [
        "Ġà¤",
        "µ"
      ],
      [
        "Ġà¤",
        "¨"
      ],
      [
        "Ġà¤",
        "¬"
      ],
      [
        "à¤",
        "¼"
      ],
      [
        "Ġà¤",
        "¤"
      ],
      [
        "Ġà¤",
        "ī"
      ],
      [
        "à¥",
        "Ĥ"
      ],
      [
        "Ġà¤",
        "¦"
      ],
      [
        "à¥ĭ",
        "à¤Ĥ"
      ],
      [
        "Ġà¤",
        "²"
      ],
      [
        "à¤",
        "ľ"
      ],
      [
        "à¥",
        "¤"
      ],
      [
        "Ġà¤",
        "Ķ"
      ],
      [
        "à¤",
        "¶"
      ],
      [
        "Ġà¤Ķ",
        "à¤°"
      ],
      [
        "à¤",
        "¬"
      ],
      [
        "à¤",
        "Ł"
      ],
      [
        "Ġà¤",
        "°"
      ],
      [
        "à¤",
        "ı"
      ],
      [
        "Ġà¤ķ",
        "à¤°"
      ],
      [
        "à¤",
        "§"
      ],
      [
        "à¤",
        "·"
      ],
      [
        "à¤",
        "ļ"
      ],
      [
        "Ġà¤",
        "Ĩ"
      ],
      [
        "Ġà¤",
        "¯"
      ],
      [
        "à¤",
        "¡"
      ],
      [
        "à¤",
        "¥"
      ],
      [
        "Ġà¤",
        "Ń"
      ],
      [
        "à¤",
        "£"
      ],
      [
        "Ġà¤",
        "ĩ"
      ],
      [
        "Ġà¤",
        "Ĺ"
      ],
      [
        "à¤",
        "ĸ"
      ],
      [
        "Ġ",
        "("
      ],
      [
        "Ġà¤ª",
        "à¤°"
      ],
      [
        "à¥Ī",
        "à¤Ĥ"
      ],
      [
        "à¤",
        "Ń"
      ],
      [
        "Ġà¤",
        "ı"
      ],
      [
        "Ġà¤",
        "ļ"
      ],
      [
        "Ġà¤ī",
        "à¤¨"
      ],
      [
        "Ġà¤",
        "¶"
      ],
      [
        "à¤",
        "Ī"
      ],
      [
        "Ġà¤ī",
        "à¤¸"
      ],
      [
        "Ġà¤ĩ",
        "à¤¸"
      ],
      [
        "Ġà¤",
        "ĸ"
      ],
      [
        "à¥Ī",
        "à¥¤"
      ],
      [
        "à¥Ģ",
        "à¤Ĥ"
      ],
      [
        "à¤°",
        "à¤¤"
      ],
      [
        "à¤ª",
        "à¤¨"
      ],
      [
        "Ġà¤ı",
        "à¤ķ"
      ],
      [
        "Ġà¤",
        "¥"
      ],
      [
        "à¤",
        "«"
      ],
      [
        "Ġà¤",
        "«"
      ],
      [
        "Ġà¤¸",
        "à¤®"
      ],
      [
        "Ġà¤¨",
        "à¤¹"
      ],
      [
        "à¤",
        "ģ"
      ],
      [
        "à¤¾",
        "à¤Ĥ"
      ],
      [
        "Ġà¤¹",
        "à¤®"
      ],
      [
        "Ġà¤ķà¤°",
        "à¤¨"
      ],
      [
        "à¤",
        "Ľ"
      ],
      [
        "Ġà¤¯",
        "à¤¹"
      ],
      [
        "à¥",
        "Į"
      ],
      [
        "à¥",
        "ĥ"
      ],
      [
        "Ġà¤ħ",
        "à¤ªà¤¨"
      ],
      [
        "Ġà¤°",
        "à¤¹"
      ],
      [
        "Ġà¤ħ",
        "à¤¨"
      ],
      [
        "à¤ķ",
        "à¤°"
      ],
      [
        "Ġà¤µ",
        "à¤¹"
      ],
      [
        "à¤¼",
        "à¤¾"
      ],
      [
        "à¤°",
        "à¤ķ"
      ],
      [
        "à¤¾",
        "à¥¤"
      ],
      [
        "Ġà¤īà¤¨",
        "à¤ķ"
      ],
      [
        "à¤ķ",
        "à¤¤"
      ],
      [
        "à¤",
        "ĩ"
      ],
      [
        "à¤",
        "ł"
      ],
      [
        "à¤°",
        "à¤£"
      ],
      [
        "Ġà¤ħ",
        "à¤§"
      ],
      [
        "Ġà¤ķà¤°",
        "à¤¤"
      ],
      [
        "Ġà¤ķ",
        "à¤¹"
      ],
      [
        "Ġà¤īà¤¸",
        "à¤ķ"
      ],
      [
        "à¤",
        "ĵ"
      ],
      [
        "Ġà¤",
        "¡"
      ],
      [
        "à¤¤",
        "à¤°"
      ],
      [
        "Ã",
        "ł"
      ],
      [
        "à¤¾",
        ","
      ],
      [
        "à¤µ",
        "à¤°"
      ],
      [
        "à¥Ī",
        ","
      ],
      [
        "Ġà¤Ĺ",
        "à¤¯"
      ],
      [
        "Ġà¤¬",
        "à¤¨"
      ],
      [
        "Ġà¤",
        "Ĳ"
      ],
      [
        "Ġà¤ī",
        "à¤ª"
      ],
      [
        "à¤¯",
        "à¤ķ"
      ],
      [
        "Ġ",
        "1"
      ],
      [
        "Ġà¤",
        "§"
      ],
      [
        "à¤",
        "ĥ"
      ],
      [
        "Ġà¤¤",
        "à¤¥"
      ],
      [
        "Ġà¤¸",
        "à¤ķà¤¤"
      ],
      [
        "Â",
        "¤"
      ],
      [
        "à¤¿",
        "à¤Ĥ"
      ],
      [
        "Ġà¤ª",
        "à¤¹"
      ],
      [
        "à¤",
        "Ĩ"
      ],
      [
        "à¤¾",
        "à¤ģ"
      ],
      [
        "à¤ľ",
        "à¤¨"
      ],
      [
        "Ġà¤ħ",
        "à¤²"
      ],
      [
        "à¤",
        "Ŀ"
      ],
      [
        "à¥",
        "ī"
      ],
      [
        "Ġà¤Ĩ",
        "à¤ª"
      ],
      [
        "à¤°",
        "à¤®"
      ],
      [
        "à¥Īà¤Ĥ",
        "à¥¤"
      ],
      [
        "Ġà¤Ĳ",
        "à¤¸"
      ],
      [
        "Ġà¤",
        "Ľ"
      ],
      [
        "à¤ª",
        "à¤°"
      ],
      [
        "à¤¼",
        "à¥ģ"
      ],
      [
        "à¤",
        "¢"
      ],
      [
        "Ġà¤ľ",
        "à¤¬"
      ],
      [
        "à¥ĩ",
        "à¥¤"
      ],
      [
        "Ġà¤",
        "ĺ"
      ],
      [
        "à¤¯",
        "à¤¤"
      ],
      [
        "à¤¼",
        "à¥Ģ"
      ],
      [
        "à¤Ĺ",
        "à¤°"
      ],
      [
        "â",
        "Ģ"
      ],
      [
        "Ġà¤¤",
        "à¤°"
      ],
      [
        "à¥Ī",
        "."
      ],
      [
        "à¤¹",
        "à¤°"
      ],
      [
        "à¤¸",
        "à¤°"
      ],
      [
        "à¤¤",
        "à¤¨"
      ],
      [
        "Ġà¤¤",
        "à¤ķ"
      ],
      [
        "Ġà¤",
        "Ł"
      ],
      [
        "Ġà¤µ",
        "à¤°"
      ],
      [
        "Ġà¤ĩ",
        "à¤¨"
      ],
      [
        "Ġà¤²",
        "à¤Ĺ"
      ],
      [
        "à¤²",
        "à¤¨"
      ],
      [
        "Ġà¤°",
        "à¤ĸ"
      ],
      [
        "Ġà¤¸",
        "à¤¹"
      ],
      [
        "à¤¯",
        "à¤®"
      ],
      [
        "Ġà¤®",
        "à¤¹"
      ],
      [
        "à¤¼",
        "à¤¿"
      ],
      [
        "à¤¨",
        "à¤¤"
      ],
      [
        "à¤²",
        "à¤¤"
      ],
      [
        "Ġà¤¬",
        "à¤¹"
      ],
      [
        "à¤°",
        "à¤¦"
      ],
      [
        "Â¤",
        "Â"
      ],
      [
        "à¤°",
        "à¤¸"
      ],
      [
        "Ġà¤ī",
        "à¤¤"
      ],
      [
        "Ġ",
        "2"
      ],
      [
        "à¤¼",
        "à¥ĩ"
      ],
      [
        "à¤ª",
        "à¤¤"
      ],
      [
        "à¤",
        "ŀ"
      ],
      [
        "à¥Ģ",
        "à¥¤"
      ],
      [
        "à¥ĩ",
        ","
      ],
      [
        "à¤µ",
        "à¤¨"
      ],
      [
        "Ġà¤ħ",
        "à¤µ"
      ],
      [
        "à¤¶",
        "à¤¨"
      ],
      [
        "Ġ",
        "\""
      ],
      [
        "à¤ļ",
        "à¤¨"
      ],
      [
        "Ġà¤",
        "Ī"
      ],
      [
        "Ġà¤¸",
        "à¤¬"
      ],
      [
        "à¤",
        "ħ"
      ],
      [
        "à¤®",
        "à¤¤"
      ],
      [
        "à¥Ģ",
        ","
      ],
      [
        "Ġà¤ĩà¤¸",
        "à¤ķ"
      ],
      [
        "à¤¸",
        "à¤®"
      ],
      [
        "à¤Ĺ",
        "à¤¤"
      ],
      [
        "Ġà¤Ĩ",
        "à¤¯"
      ],
      [
        "Ġà¤ķ",
        "à¤®"
      ],
      [
        "Ġà¤ªà¤¹",
        "à¤²"
      ],
      [
        "à¤¬",
        "à¤°"
      ],
      [
        "à¤®",
        "à¤¨"
      ],
      [
        "à¤°",
        "à¤¯"
      ],
      [
        "à¤·",
        "à¤£"
      ],
      [
        "à¤¸",
        "à¤ķ"
      ],
      [
        "à¤",
        "ĺ"
      ],
      [
        "Ġà¤¬",
        "à¤¡"
      ],
      [
        "Ġà¤ħ",
        "à¤¤"
      ],
      [
        "à¤¯",
        "à¤¨"
      ],
      [
        "Ġà¤",
        "ĵ"
      ],
      [
        "Ġà¤ħ",
        "à¤Ń"
      ],
      [
        "à¤Ł",
        "à¤°"
      ],
      [
        "Ġà¤ī",
        "à¤¦"
      ],
      [
        "Ġà¤¸",
        "à¤ķ"
      ],
      [
        "à¤¨",
        "à¤ķ"
      ],
      [
        "à¥ĩ",
        ")"
      ],
      [
        "à¤",
        "ī"
      ],
      [
        "à¤¹",
        "à¤¤"
      ],
      [
        "Ġà¤¸",
        "à¤Ń"
      ],
      [
        "Ġà¤¸à¤®",
        "à¤¯"
      ],
      [
        "à¤²",
        "à¤¯"
      ],
      [
        "à¤¦",
        "à¤¨"
      ],
      [
        "à¤°",
        "à¤µ"
      ],
      [
        "Ġà¤¯",
        "à¤¦"
      ],
      [
        "à¤¦",
        "à¤°"
      ],
      [
        "à¤¸",
        "à¤¨"
      ],
      [
        "Ġà¤¸",
        "à¤°"
      ],
      [
        "Ġà¤ª",
        "à¤¤"
      ],
      [
        "0",
        "0"
      ],
      [
        "à¤¾",
        "."
      ],
      [
        "Ġà¤¤à¤°",
        "à¤¹"
      ],
      [
        "à¥ĭ",
        ","
      ],
      [
        "Ġà¤¹à¤®",
        "à¤¨"
      ],
      [
        "Ġà¤ħ",
        "à¤°"
      ],
      [
        "à¤ķà¤°",
        "à¤£"
      ],
      [
        "Ġà¤Ĩ",
        "à¤µ"
      ],
      [
        "à¤ı",
        "à¤Ĺ"
      ],
      [
        "Ġ",
        "âĢ"
      ],
      [
        "à¤®",
        "à¤ķ"
      ],
      [
        "Ġà¤¸",
        "à¤°à¤ķ"
      ],
      [
        "à¤¯",
        "à¤µ"
      ],
      [
        "à¤ķ",
        "à¤²"
      ],
      [
        "Ġà¤¹",
        "à¤°"
      ],
      [
        "à¤µ",
        "à¤¤"
      ],
      [
        "Ġà¤ĵ",
        "à¤°"
      ],
      [
        "à¥Ĥ",
        "à¤Ĥ"
      ],
      [
        "Ġà¤Ĺ",
        "à¤ı"
      ],
      [
        "Ġà¤ħ",
        "à¤ļ"
      ],
      [
        "Ġà¤Ĩ",
        "à¤¦"
      ],
      [
        "Ġà¤",
        "Ŀ"
      ],
      [
        "Ġà¤ħ",
        "à¤¸"
      ],
      [
        "à¤¾",
        ")"
      ],
      [
        "Ġà¤Ĺ",
        "à¤Ī"
      ],
      [
        "Ġà¤°",
        "à¤¸"
      ],
      [
        "à¤Ł",
        "à¤¨"
      ],
      [
        "à¤°",
        "à¤Ń"
      ],
      [
        "à¥Ĥ",
        "à¤ģ"
      ],
      [
        "à¤§",
        "à¤¨"
      ],
      [
        "Ġà¤ħ",
        "à¤ª"
      ],
      [
        "à¥ģ",
        "à¤Ĥ"
      ],
      [
        "Ġ",
        "s"
      ],
      [
        "Ġà¤Ĩ",
        "à¤°"
      ],
      [
        "Ġà¤¬",
        "à¤¢"
      ],
      [
        "à¥Ģ",
        ")"
      ],
      [
        "Ġ1",
        "9"
      ],
      [
        "Ġà¤Ī",
        "à¤®"
      ],
      [
        "à¥Īà¤Ĥ",
        ","
      ],
      [
        "Ġà¤¬",
        "à¤¦"
      ],
      [
        "Ġà¤Ĩ",
        "à¤§"
      ],
      [
        "Ġ",
        "à¥"
      ],
      [
        "Ġà¤Ĩà¤ª",
        "à¤ķ"
      ],
      [
        "à¤°",
        "à¤¹"
      ],
      [
        "Ġà¤ª",
        "à¤¡"
      ],
      [
        "à¤ĩ",
        "à¤²"
      ],
      [
        "Ġà¤ı",
        "à¤µ"
      ],
      [
        "à¤¶",
        "à¤ķ"
      ],
      [
        "à¤µ",
        "à¤²"
      ],
      [
        "Ġà¤¦",
        "à¤°"
      ],
      [
        ".",
        "."
      ],
      [
        "Ġà¤ļ",
        "à¤²"
      ],
      [
        "Ġà¤",
        "Ĭ"
      ],
      [
        "Ġà¤¸à¤®",
        "à¤Ŀ"
      ],
      [
        "à¥ĭ",
        "à¥¤"
      ],
      [
        "Ġà¤ħ",
        "à¤Ĺà¤°"
      ],
      [
        "Ġà¤ħ",
        "à¤¬"
      ],
      [
        "Ġ",
        "'"
      ],
      [
        "à¤°",
        "à¤ªà¤¤"
      ],
      [
        "Ġà¤",
        "ł"
      ],
      [
        "à¤¯",
        "à¤°"
      ],
      [
        "Ġà¤īà¤ª",
        "à¤¯"
      ],
      [
        "Ġà¤¬",
        "à¤ļ"
      ],
      [
        "Ġà¤ľ",
        "à¤¹"
      ],
      [
        "à¤°",
        "à¤¶"
      ],
      [
        "à¥ĩà¤Ĥ",
        ","
      ],
      [
        "Ġ(",
        "_"
      ],
      [
        "Ġà¤®",
        "à¤¨"
      ],
      [
        "Ġà¤Ĩ",
        "à¤¤"
      ],
      [
        "Ġà¤¸",
        "à¤¤"
      ],
      [
        "Ġà¤īà¤¸",
        "à¤¨"
      ],
      [
        "Ġà¤Ĩ",
        "à¤Ĺ"
      ],
      [
        "à¤¨",
        "à¤¨"
      ],
      [
        "à¤¼",
        "à¥į"
      ],
      [
        "à¤¸",
        "à¤²"
      ],
      [
        "à¥Ģ",
        "."
      ],
      [
        "Ġà¤¸",
        "à¤¦"
      ],
      [
        "o",
        "n"
      ],
      [
        "Ġà¤Ĩ",
        "à¤ķ"
      ],
      [
        "à¤¤",
        "à¤ķ"
      ],
      [
        "Ġà¤¬",
        "à¤²"
      ],
      [
        "Â",
        "¥"
      ],
      [
        "Â¥",
        "Â"
      ],
      [
        "à¤²",
        "à¤¬"
      ],
      [
        "Ġà¤ħ",
        "à¤ķ"
      ],
      [
        "à¤®",
        "à¤²"
      ],
      [
        "Ġà¤Ĩ",
        "à¤ľ"
      ],
      [
        "Ġ",
        "Ãł"
      ],
      [
        "à¤¾",
        "-"
      ],
      [
        "Ġà¤ľ",
        "à¤¨"
      ],
      [
        "à¤",
        "Ĳ"
      ],
      [
        "à¤°",
        "à¤¨"
      ],
      [
        "Ġà¤¬à¤¦",
        "à¤²"
      ],
      [
        "à¥ģ",
        "à¤ģ"
      ],
      [
        "Ġ",
        "3"
      ],
      [
        "Ġà¤¶",
        "à¤ķ"
      ],
      [
        "à¤Ĺ",
        "à¤²"
      ],
      [
        "m",
        "e"
[...]
